{
  "version": "1.0",
  "truncation": null,
  "padding": null,
  "added_tokens": [
    {
      "id": 0,
      "content": "[PAD]",
      "single_word": false,
      "lstrip": false,
      "rstrip": false,
      "normalized": false,
      "special": true
    },
    {
      "id": 1,
      "content": "[BOS]",
      "single_word": false,
      "lstrip": false,
      "rstrip": false,
      "normalized": false,
      "special": true
    },
    {
      "id": 2,
      "content": "[EOS]",
      "single_word": false,
      "lstrip": false,
      "rstrip": false,
      "normalized": false,
      "special": true
    },
    {
      "id": 3,
      "content": "[UNK]",
      "single_word": false,
      "lstrip": false,
      "rstrip": false,
      "normalized": false,
      "special": true
    }
  ],
  "normalizer": null,
  "pre_tokenizer": {
    "type": "Whitespace"
  },
  "post_processor": null,
  "decoder": {
    "type": "WordPiece",
    "prefix": "##",
    "cleanup": true
  },
  "model": {
    "type": "WordPiece",
    "unk_token": "[UNK]",
    "continuing_subword_prefix": "##",
    "max_input_chars_per_word": 100,
    "vocab": {
      "[PAD]": 0,
      "[BOS]": 1,
      "[EOS]": 2,
      "[UNK]": 3,
      "!": 4,
      "\"": 5,
      "#": 6,
      "$": 7,
      "%": 8,
      "&": 9,
      "'": 10,
      "(": 11,
      ")": 12,
      "*": 13,
      "+": 14,
      ",": 15,
      "-": 16,
      ".": 17,
      "/": 18,
      "0": 19,
      "1": 20,
      "2": 21,
      "3": 22,
      "4": 23,
      "5": 24,
      "6": 25,
      "7": 26,
      "8": 27,
      "9": 28,
      ":": 29,
      ";": 30,
      "<": 31,
      "=": 32,
      ">": 33,
      "?": 34,
      "@": 35,
      "A": 36,
      "B": 37,
      "C": 38,
      "D": 39,
      "E": 40,
      "F": 41,
      "G": 42,
      "H": 43,
      "I": 44,
      "J": 45,
      "K": 46,
      "L": 47,
      "M": 48,
      "N": 49,
      "O": 50,
      "P": 51,
      "Q": 52,
      "R": 53,
      "S": 54,
      "T": 55,
      "U": 56,
      "V": 57,
      "W": 58,
      "X": 59,
      "Y": 60,
      "Z": 61,
      "[": 62,
      "\\": 63,
      "]": 64,
      "^": 65,
      "_": 66,
      "`": 67,
      "a": 68,
      "b": 69,
      "c": 70,
      "d": 71,
      "e": 72,
      "f": 73,
      "g": 74,
      "h": 75,
      "i": 76,
      "j": 77,
      "k": 78,
      "l": 79,
      "m": 80,
      "n": 81,
      "o": 82,
      "p": 83,
      "q": 84,
      "r": 85,
      "s": 86,
      "t": 87,
      "u": 88,
      "v": 89,
      "w": 90,
      "x": 91,
      "y": 92,
      "z": 93,
      "{": 94,
      "}": 95,
      "~": 96,
      "": 97,
      "": 98,
      "": 99,
      "": 100,
      "": 101,
      "": 102,
      "": 103,
      "": 104,
      "": 105,
      "": 106,
      "": 107,
      "": 108,
      "": 109,
      "": 110,
      "": 111,
      "": 112,
      "": 113,
      "": 114,
      "": 115,
      "": 116,
      "¡": 117,
      "¢": 118,
      "£": 119,
      "¤": 120,
      "¥": 121,
      "¦": 122,
      "§": 123,
      "¨": 124,
      "©": 125,
      "ª": 126,
      "«": 127,
      "¬": 128,
      "­": 129,
      "®": 130,
      "¯": 131,
      "°": 132,
      "±": 133,
      "²": 134,
      "³": 135,
      "´": 136,
      "µ": 137,
      "¶": 138,
      "·": 139,
      "¸": 140,
      "¹": 141,
      "º": 142,
      "»": 143,
      "¼": 144,
      "½": 145,
      "¾": 146,
      "¿": 147,
      "À": 148,
      "Á": 149,
      "Â": 150,
      "Ã": 151,
      "Ä": 152,
      "Å": 153,
      "Æ": 154,
      "Ç": 155,
      "È": 156,
      "É": 157,
      "Ê": 158,
      "Ë": 159,
      "Ì": 160,
      "Í": 161,
      "Î": 162,
      "Ï": 163,
      "Ð": 164,
      "Ñ": 165,
      "Ò": 166,
      "Ó": 167,
      "Ô": 168,
      "Õ": 169,
      "Ö": 170,
      "×": 171,
      "Ø": 172,
      "Ù": 173,
      "Ú": 174,
      "Û": 175,
      "Ü": 176,
      "Ý": 177,
      "Þ": 178,
      "ß": 179,
      "à": 180,
      "á": 181,
      "â": 182,
      "ã": 183,
      "ä": 184,
      "å": 185,
      "æ": 186,
      "ç": 187,
      "è": 188,
      "é": 189,
      "ê": 190,
      "ë": 191,
      "ì": 192,
      "í": 193,
      "î": 194,
      "ï": 195,
      "ð": 196,
      "ñ": 197,
      "ò": 198,
      "ó": 199,
      "ô": 200,
      "õ": 201,
      "ö": 202,
      "÷": 203,
      "ø": 204,
      "ù": 205,
      "ú": 206,
      "û": 207,
      "ü": 208,
      "ý": 209,
      "þ": 210,
      "ÿ": 211,
      "Ā": 212,
      "ā": 213,
      "Ă": 214,
      "ă": 215,
      "Ą": 216,
      "ą": 217,
      "Ć": 218,
      "ć": 219,
      "Ċ": 220,
      "ċ": 221,
      "Č": 222,
      "č": 223,
      "ď": 224,
      "Đ": 225,
      "đ": 226,
      "ē": 227,
      "ĕ": 228,
      "Ė": 229,
      "ė": 230,
      "ę": 231,
      "Ě": 232,
      "ě": 233,
      "ğ": 234,
      "Ġ": 235,
      "ġ": 236,
      "ģ": 237,
      "Ħ": 238,
      "ħ": 239,
      "ī": 240,
      "į": 241,
      "İ": 242,
      "ı": 243,
      "ķ": 244,
      "ļ": 245,
      "Ľ": 246,
      "ľ": 247,
      "Ł": 248,
      "ł": 249,
      "Ń": 250,
      "ń": 251,
      "ņ": 252,
      "ň": 253,
      "Ō": 254,
      "ō": 255,
      "ŏ": 256,
      "Ő": 257,
      "ő": 258,
      "Œ": 259,
      "œ": 260,
      "ŕ": 261,
      "Ř": 262,
      "ř": 263,
      "Ś": 264,
      "ś": 265,
      "Ş": 266,
      "ş": 267,
      "Š": 268,
      "š": 269,
      "Ţ": 270,
      "ţ": 271,
      "ť": 272,
      "ū": 273,
      "ŭ": 274,
      "ů": 275,
      "ű": 276,
      "ų": 277,
      "ŷ": 278,
      "ź": 279,
      "Ż": 280,
      "ż": 281,
      "Ž": 282,
      "ž": 283,
      "ƒ": 284,
      "ơ": 285,
      "ǅ": 286,
      "ǎ": 287,
      "ǿ": 288,
      "Ș": 289,
      "ș": 290,
      "Ț": 291,
      "ț": 292,
      "ȧ": 293,
      "ʊ": 294,
      "ʻ": 295,
      "ʼ": 296,
      "ʿ": 297,
      "ˆ": 298,
      "˘": 299,
      "˚": 300,
      "˜": 301,
      "˝": 302,
      "́": 303,
      "̂": 304,
      "̶": 305,
      "΄": 306,
      "Ά": 307,
      "·": 308,
      "Ή": 309,
      "Ί": 310,
      "Ό": 311,
      "ΐ": 312,
      "Α": 313,
      "Β": 314,
      "Γ": 315,
      "Δ": 316,
      "Ε": 317,
      "Ζ": 318,
      "Η": 319,
      "Θ": 320,
      "Ι": 321,
      "Κ": 322,
      "Λ": 323,
      "Μ": 324,
      "Ν": 325,
      "Ξ": 326,
      "Ο": 327,
      "Π": 328,
      "Ρ": 329,
      "Σ": 330,
      "Τ": 331,
      "Υ": 332,
      "Φ": 333,
      "Χ": 334,
      "Ψ": 335,
      "Ω": 336,
      "Ϊ": 337,
      "ά": 338,
      "έ": 339,
      "ή": 340,
      "ί": 341,
      "α": 342,
      "β": 343,
      "γ": 344,
      "δ": 345,
      "ε": 346,
      "ζ": 347,
      "η": 348,
      "θ": 349,
      "ι": 350,
      "κ": 351,
      "λ": 352,
      "μ": 353,
      "ν": 354,
      "ξ": 355,
      "ο": 356,
      "π": 357,
      "ρ": 358,
      "ς": 359,
      "σ": 360,
      "τ": 361,
      "υ": 362,
      "φ": 363,
      "χ": 364,
      "ψ": 365,
      "ω": 366,
      "ϊ": 367,
      "ϋ": 368,
      "ό": 369,
      "ύ": 370,
      "ώ": 371,
      "Ѐ": 372,
      "Ё": 373,
      "Ђ": 374,
      "І": 375,
      "А": 376,
      "Б": 377,
      "В": 378,
      "Г": 379,
      "Д": 380,
      "Е": 381,
      "Ж": 382,
      "З": 383,
      "И": 384,
      "Й": 385,
      "К": 386,
      "Л": 387,
      "М": 388,
      "Н": 389,
      "О": 390,
      "П": 391,
      "Р": 392,
      "С": 393,
      "Т": 394,
      "У": 395,
      "Ф": 396,
      "Х": 397,
      "Ц": 398,
      "Ч": 399,
      "Ш": 400,
      "Щ": 401,
      "Ъ": 402,
      "Ы": 403,
      "Ь": 404,
      "Э": 405,
      "Ю": 406,
      "Я": 407,
      "а": 408,
      "б": 409,
      "в": 410,
      "г": 411,
      "д": 412,
      "е": 413,
      "ж": 414,
      "з": 415,
      "и": 416,
      "й": 417,
      "к": 418,
      "л": 419,
      "м": 420,
      "н": 421,
      "о": 422,
      "п": 423,
      "р": 424,
      "с": 425,
      "т": 426,
      "у": 427,
      "ф": 428,
      "х": 429,
      "ц": 430,
      "ч": 431,
      "ш": 432,
      "щ": 433,
      "ъ": 434,
      "ы": 435,
      "ь": 436,
      "э": 437,
      "ю": 438,
      "я": 439,
      "ё": 440,
      "ѕ": 441,
      "і": 442,
      "ј": 443,
      "њ": 444,
      "ќ": 445,
      "ў": 446,
      "ә": 447,
      "ө": 448,
      "ա": 449,
      "ե": 450,
      "մ": 451,
      "ն": 452,
      "ִ": 453,
      "ַ": 454,
      "א": 455,
      "ב": 456,
      "ג": 457,
      "ד": 458,
      "ה": 459,
      "ו": 460,
      "ח": 461,
      "י": 462,
      "כ": 463,
      "ל": 464,
      "מ": 465,
      "נ": 466,
      "ס": 467,
      "ע": 468,
      "ק": 469,
      "ר": 470,
      "ש": 471,
      "ת": 472,
      "،": 473,
      "؟": 474,
      "ء": 475,
      "آ": 476,
      "أ": 477,
      "ؤ": 478,
      "ئ": 479,
      "ا": 480,
      "ب": 481,
      "ة": 482,
      "ت": 483,
      "ث": 484,
      "ج": 485,
      "ح": 486,
      "خ": 487,
      "د": 488,
      "ذ": 489,
      "ر": 490,
      "ز": 491,
      "س": 492,
      "ش": 493,
      "ص": 494,
      "ض": 495,
      "ط": 496,
      "ظ": 497,
      "ع": 498,
      "غ": 499,
      "ف": 500,
      "ق": 501,
      "ك": 502,
      "ل": 503,
      "م": 504,
      "ن": 505,
      "ه": 506,
      "و": 507,
      "ى": 508,
      "ي": 509,
      "ٍ": 510,
      "َ": 511,
      "ّ": 512,
      "ْ": 513,
      "پ": 514,
      "ک": 515,
      "گ": 516,
      "ی": 517,
      "ँ": 518,
      "ं": 519,
      "अ": 520,
      "आ": 521,
      "इ": 522,
      "ई": 523,
      "उ": 524,
      "ऊ": 525,
      "ए": 526,
      "ऐ": 527,
      "ऑ": 528,
      "ओ": 529,
      "औ": 530,
      "क": 531,
      "ख": 532,
      "ग": 533,
      "घ": 534,
      "च": 535,
      "छ": 536,
      "ज": 537,
      "झ": 538,
      "ञ": 539,
      "ट": 540,
      "ठ": 541,
      "ड": 542,
      "ढ": 543,
      "ण": 544,
      "त": 545,
      "थ": 546,
      "द": 547,
      "ध": 548,
      "न": 549,
      "प": 550,
      "फ": 551,
      "ब": 552,
      "भ": 553,
      "म": 554,
      "य": 555,
      "र": 556,
      "ल": 557,
      "व": 558,
      "श": 559,
      "ष": 560,
      "स": 561,
      "ह": 562,
      "़": 563,
      "ा": 564,
      "ि": 565,
      "ी": 566,
      "ु": 567,
      "ू": 568,
      "ृ": 569,
      "े": 570,
      "ै": 571,
      "ॉ": 572,
      "ो": 573,
      "ौ": 574,
      "्": 575,
      "।": 576,
      "ক": 577,
      "ঢ": 578,
      "া": 579,
      "฀": 580,
      "ก": 581,
      "ท": 582,
      "พ": 583,
      "ย": 584,
      "ร": 585,
      "ห": 586,
      "ฬ": 587,
      "อ": 588,
      "ั": 589,
      "า": 590,
      "ำ": 591,
      "ี": 592,
      "་": 593,
      "ཁ": 594,
      "ང": 595,
      "ར": 596,
      "ོ": 597,
      "ྫ": 598,
      "፣": 599,
      "ᐊ": 600,
      "ᑐ": 601,
      "ᑦ": 602,
      "ᒪ": 603,
      "ᓂ": 604,
      "ᖃ": 605,
      "ᖅ": 606,
      "Ḥ": 607,
      "ḥ": 608,
      "ṇ": 609,
      "ṛ": 610,
      "ṣ": 611,
      "ṭ": 612,
      "ṯ": 613,
      "ạ": 614,
      "ả": 615,
      "ầ": 616,
      "ắ": 617,
      "ằ": 618,
      "Ẻ": 619,
      "ệ": 620,
      "ἀ": 621,
      "ἂ": 622,
      "ἰ": 623,
      "ἱ": 624,
      "ἶ": 625,
      "Ἱ": 626,
      "ὕ": 627,
      "ὰ": 628,
      "ὶ": 629,
      "ῆ": 630,
      "​": 631,
      "‏": 632,
      "‐": 633,
      "‑": 634,
      "‒": 635,
      "–": 636,
      "—": 637,
      "―": 638,
      "‘": 639,
      "’": 640,
      "‚": 641,
      "“": 642,
      "”": 643,
      "„": 644,
      "‟": 645,
      "†": 646,
      "‡": 647,
      "•": 648,
      "…": 649,
      "‭": 650,
      "‰": 651,
      "‱": 652,
      "′": 653,
      "″": 654,
      "‹": 655,
      "›": 656,
      "₂": 657,
      "€": 658,
      "№": 659,
      "™": 660,
      "←": 661,
      "↑": 662,
      "→": 663,
      "↓": 664,
      "↔": 665,
      "⇌": 666,
      "∆": 667,
      "∈": 668,
      "∉": 669,
      "∑": 670,
      "−": 671,
      "∗": 672,
      "√": 673,
      "∞": 674,
      "≠": 675,
      "≤": 676,
      "≥": 677,
      "⋅": 678,
      "⎢": 679,
      "⎣": 680,
      "─": 681,
      "═": 682,
      "■": 683,
      "□": 684,
      "►": 685,
      "▼": 686,
      "◄": 687,
      "●": 688,
      "★": 689,
      "♦": 690,
      "♪": 691,
      "♫": 692,
      "♬": 693,
      "❚": 694,
      "➔": 695,
      "➾": 696,
      "、": 697,
      "。": 698,
      "【": 699,
      "】": 700,
      "あ": 701,
      "い": 702,
      "う": 703,
      "か": 704,
      "が": 705,
      "く": 706,
      "こ": 707,
      "し": 708,
      "す": 709,
      "そ": 710,
      "た": 711,
      "ち": 712,
      "て": 713,
      "で": 714,
      "と": 715,
      "ど": 716,
      "な": 717,
      "に": 718,
      "の": 719,
      "は": 720,
      "ま": 721,
      "や": 722,
      "ょ": 723,
      "よ": 724,
      "ら": 725,
      "り": 726,
      "る": 727,
      "れ": 728,
      "を": 729,
      "ア": 730,
      "イ": 731,
      "エ": 732,
      "キ": 733,
      "ク": 734,
      "グ": 735,
      "コ": 736,
      "シ": 737,
      "ス": 738,
      "ズ": 739,
      "ッ": 740,
      "デ": 741,
      "ト": 742,
      "ニ": 743,
      "ネ": 744,
      "パ": 745,
      "ヒ": 746,
      "ビ": 747,
      "フ": 748,
      "ベ": 749,
      "マ": 750,
      "ミ": 751,
      "ム": 752,
      "メ": 753,
      "ュ": 754,
      "ョ": 755,
      "ラ": 756,
      "ル": 757,
      "レ": 758,
      "ロ": 759,
      "ン": 760,
      "・": 761,
      "ー": 762,
      "三": 763,
      "专": 764,
      "为": 765,
      "九": 766,
      "争": 767,
      "互": 768,
      "产": 769,
      "京": 770,
      "今": 771,
      "他": 772,
      "仙": 773,
      "代": 774,
      "以": 775,
      "伊": 776,
      "会": 777,
      "伽": 778,
      "何": 779,
      "作": 780,
      "你": 781,
      "侯": 782,
      "保": 783,
      "信": 784,
      "候": 785,
      "倻": 786,
      "元": 787,
      "八": 788,
      "公": 789,
      "兵": 790,
      "其": 791,
      "军": 792,
      "决": 793,
      "処": 794,
      "出": 795,
      "分": 796,
      "到": 797,
      "前": 798,
      "加": 799,
      "助": 800,
      "十": 801,
      "南": 802,
      "及": 803,
      "友": 804,
      "取": 805,
      "受": 806,
      "变": 807,
      "可": 808,
      "右": 809,
      "司": 810,
      "吴": 811,
      "命": 812,
      "哀": 813,
      "品": 814,
      "售": 815,
      "嘉": 816,
      "四": 817,
      "国": 818,
      "國": 819,
      "在": 820,
      "地": 821,
      "场": 822,
      "城": 823,
      "多": 824,
      "天": 825,
      "妄": 826,
      "娛": 827,
      "子": 828,
      "字": 829,
      "安": 830,
      "宗": 831,
      "定": 832,
      "家": 833,
      "将": 834,
      "將": 835,
      "山": 836,
      "州": 837,
      "市": 838,
      "师": 839,
      "帮": 840,
      "平": 841,
      "年": 842,
      "广": 843,
      "张": 844,
      "很": 845,
      "律": 846,
      "得": 847,
      "德": 848,
      "心": 849,
      "想": 850,
      "感": 851,
      "慧": 852,
      "戦": 853,
      "房": 854,
      "才": 855,
      "持": 856,
      "推": 857,
      "援": 858,
      "料": 859,
      "日": 860,
      "时": 861,
      "明": 862,
      "易": 863,
      "春": 864,
      "時": 865,
      "普": 866,
      "景": 867,
      "更": 868,
      "有": 869,
      "李": 870,
      "村": 871,
      "来": 872,
      "松": 873,
      "板": 874,
      "柯": 875,
      "格": 876,
      "桑": 877,
      "樂": 878,
      "橙": 879,
      "檠": 880,
      "欗": 881,
      "次": 882,
      "欲": 883,
      "氏": 884,
      "民": 885,
      "決": 886,
      "沈": 887,
      "洋": 888,
      "洛": 889,
      "洞": 890,
      "活": 891,
      "清": 892,
      "港": 893,
      "満": 894,
      "漢": 895,
      "潔": 896,
      "潮": 897,
      "火": 898,
      "無": 899,
      "牵": 900,
      "狗": 901,
      "理": 902,
      "琴": 903,
      "甘": 904,
      "生": 905,
      "田": 906,
      "画": 907,
      "痴": 908,
      "的": 909,
      "益": 910,
      "直": 911,
      "眼": 912,
      "着": 913,
      "研": 914,
      "禾": 915,
      "私": 916,
      "租": 917,
      "空": 918,
      "立": 919,
      "站": 920,
      "箱": 921,
      "糖": 922,
      "绵": 923,
      "网": 924,
      "羅": 925,
      "美": 926,
      "耶": 927,
      "联": 928,
      "腹": 929,
      "自": 930,
      "良": 931,
      "色": 932,
      "茱": 933,
      "茶": 934,
      "萸": 935,
      "落": 936,
      "蛻": 937,
      "蜕": 938,
      "蟻": 939,
      "血": 940,
      "西": 941,
      "觉": 942,
      "計": 943,
      "話": 944,
      "變": 945,
      "让": 946,
      "象": 947,
      "豬": 948,
      "购": 949,
      "起": 950,
      "趣": 951,
      "足": 952,
      "軍": 953,
      "还": 954,
      "迦": 955,
      "週": 956,
      "道": 957,
      "郎": 958,
      "钦": 959,
      "锷": 960,
      "问": 961,
      "限": 962,
      "陽": 963,
      "青": 964,
      "革": 965,
      "音": 966,
      "顾": 967,
      "风": 968,
      "食": 969,
      "駕": 970,
      "駛": 971,
      "高": 972,
      "黎": 973,
      "龍": 974,
      "가": 975,
      "구": 976,
      "라": 977,
      "락": 978,
      "량": 979,
      "럽": 980,
      "뭐": 981,
      "산": 982,
      "수": 983,
      "야": 984,
      "여": 985,
      "연": 986,
      "유": 987,
      "자": 988,
      "차": 989,
      "탱": 990,
      "합": 991,
      "행": 992,
      "": 993,
      "": 994,
      "": 995,
      "": 996,
      "": 997,
      "": 998,
      "": 999,
      "": 1000,
      "": 1001,
      "": 1002,
      "": 1003,
      "": 1004,
      "": 1005,
      "": 1006,
      "ﬁ": 1007,
      "ﬂ": 1008,
      "﹝": 1009,
      "﹞": 1010,
      "﻿": 1011,
      "！": 1012,
      "，": 1013,
      "：": 1014,
      "？": 1015,
      "�": 1016,
      "𐐔": 1017,
      "𐐨": 1018,
      "𐐯": 1019,
      "𐐲": 1020,
      "𐐻": 1021,
      "𐑅": 1022,
      "𐑆": 1023,
      "𐑉": 1024,
      "##k": 1025,
      "##a": 1026,
      "##t": 1027,
      "##e": 1028,
      "##r": 1029,
      "##i": 1030,
      "##n": 1031,
      "##b": 1032,
      "##u": 1033,
      "##g": 1034,
      "##o": 1035,
      "##m": 1036,
      "##s": 1037,
      "##v": 1038,
      "##5": 1039,
      "##0": 1040,
      "##l": 1041,
      "##h": 1042,
      "##d": 1043,
      "##H": 1044,
      "##A": 1045,
      "##R": 1046,
      "##E": 1047,
      "##U": 1048,
      "##c": 1049,
      "##y": 1050,
      "##p": 1051,
      "##á": 1052,
      "##z": 1053,
      "##x": 1054,
      "##3": 1055,
      "##q": 1056,
      "##2": 1057,
      "##4": 1058,
      "##ö": 1059,
      "##Ã": 1060,
      "##N": 1061,
      "##Л": 1062,
      "##Е": 1063,
      "##В": 1064,
      "##О": 1065,
      "##P": 1066,
      "##I": 1067,
      "##K": 1068,
      "##T": 1069,
      "##f": 1070,
      "##j": 1071,
      "##е": 1072,
      "##м": 1073,
      "##а": 1074,
      "##O": 1075,
      "##B": 1076,
      "##L": 1077,
      "##w": 1078,
      "##M": 1079,
      "##Y": 1080,
      "##D": 1081,
      "##S": 1082,
      "##1": 1083,
      "##ó": 1084,
      "##C": 1085,
      "##_": 1086,
      "##V": 1087,
      "##8": 1088,
      "##í": 1089,
      "##G": 1090,
      "##7": 1091,
      "##à": 1092,
      "##’": 1093,
      "##F": 1094,
      "##6": 1095,
      "##ò": 1096,
      "##9": 1097,
      "##é": 1098,
      "##ʼ": 1099,
      "##ì": 1100,
      "##ș": 1101,
      "##X": 1102,
      "##о": 1103,
      "##т": 1104,
      "##р": 1105,
      "##й": 1106,
      "##ä": 1107,
      "##я": 1108,
      "##ń": 1109,
      "##ü": 1110,
      "##å": 1111,
      "##ð": 1112,
      "##ã": 1113,
      "##J": 1114,
      "##у": 1115,
      "##б": 1116,
      "##к": 1117,
      "##х": 1118,
      "##д": 1119,
      "##ф": 1120,
      "##н": 1121,
      "##ц": 1122,
      "##и": 1123,
      "##.": 1124,
      "###": 1125,
      "##ь": 1126,
      "##в": 1127,
      "##„": 1128,
      "##W": 1129,
      "##“": 1130,
      "##л": 1131,
      "##ш": 1132,
      "##ю": 1133,
      "##ç": 1134,
      "##Q": 1135,
      "##Z": 1136,
      "##ž": 1137,
      "##ि": 1138,
      "##स": 1139,
      "##्": 1140,
      "##े": 1141,
      "##Ø": 1142,
      "##с": 1143,
      "##ù": 1144,
      "##!": 1145,
      "##,": 1146,
      "##з": 1147,
      "##ж": 1148,
      "##ο": 1149,
      "##ы": 1150,
      "##=": 1151,
      "##'": 1152,
      "##-": 1153,
      "##+": 1154,
      "##…": 1155,
      "##]": 1156,
      "##ý": 1157,
      "##Á": 1158,
      "##/": 1159,
      "##â": 1160,
      "##ß": 1161,
      "##ī": 1162,
      "##č": 1163,
      "##ų": 1164,
      "##ę": 1165,
      "##п": 1166,
      "##ς": 1167,
      "##Ì": 1168,
      "##ع": 1169,
      "##ق": 1170,
      "##ا": 1171,
      "##ب": 1172,
      "##»": 1173,
      "##:": 1174,
      "##ч": 1175,
      "##ा": 1176,
      "##इ": 1177,
      "##ब": 1178,
      "##र": 1179,
      "##य": 1180,
      "##«": 1181,
      "##و": 1182,
      "##ك": 1183,
      "##ر": 1184,
      "##ن": 1185,
      "##ي": 1186,
      "##ت": 1187,
      "##ñ": 1188,
      "##ā": 1189,
      "##प": 1190,
      "##ŕ": 1191,
      "##\"": 1192,
      "##ı": 1193,
      "##г": 1194,
      "##”": 1195,
      "##Í": 1196,
      "##È": 1197,
      "##É": 1198,
      "##?": 1199,
      "##ë": 1200,
      "##ं": 1201,
      "##च": 1202,
      "##è": 1203,
      "##Â": 1204,
      "##ł": 1205,
      "##æ": 1206,
      "##;": 1207,
      "##ô": 1208,
      "##š": 1209,
      "##ň": 1210,
      "##>": 1211,
      "##ō": 1212,
      "##क": 1213,
      "##ी": 1214,
      "##न": 1215,
      "##व": 1216,
      "##ई": 1217,
      "##ě": 1218,
      "##ª": 1219,
      "##ă": 1220,
      "##": 1221,
      "##ू": 1222,
      "##ल": 1223,
      "##)": 1224,
      "##ś": 1225,
      "##ё": 1226,
      "##і": 1227,
      "##¦": 1228,
      "##भ": 1229,
      "##ъ": 1230,
      "##ú": 1231,
      "##ष": 1232,
      "##त": 1233,
      "##म": 1234,
      "##थ": 1235,
      "##ل": 1236,
      "##د": 1237,
      "##%": 1238,
      "##ê": 1239,
      "##щ": 1240,
      "##ū": 1241,
      "##ف": 1242,
      "##ه": 1243,
      "##Ü": 1244,
      "##đ": 1245,
      "##ø": 1246,
      "##أ": 1247,
      "##س": 1248,
      "##`": 1249,
      "##•": 1250,
      "##‘": 1251,
      "##ε": 1252,
      "##ί": 1253,
      "##μ": 1254,
      "##α": 1255,
      "##ρ": 1256,
      "##С": 1257,
      "##К": 1258,
      "##î": 1259,
      "##́": 1260,
      "##ï": 1261,
      "##♪": 1262,
      "##♫": 1263,
      "##し": 1264,
      "##て": 1265,
      "##}": 1266,
      "##ј": 1267,
      "##γ": 1268,
      "##υ": 1269,
      "##ė": 1270,
      "##À": 1271,
      "##ौ": 1272,
      "##ग": 1273,
      "##़": 1274,
      "##द": 1275,
      "##ो": 1276,
      "##—": 1277,
      "##º": 1278,
      "##ż": 1279,
      "##ट": 1280,
      "##ड": 1281,
      "##А": 1282,
      "##Т": 1283,
      "##У": 1284,
      "##П": 1285,
      "##Ю": 1286,
      "##Щ": 1287,
      "##И": 1288,
      "##М": 1289,
      "##(": 1290,
      "##​": 1291,
      "##ţ": 1292,
      "##Ê": 1293,
      "##Õ": 1294,
      "##Ó": 1295,
      "##*": 1296,
      "##π": 1297,
      "##ι": 1298,
      "##σ": 1299,
      "##τ": 1300,
      "##φ": 1301,
      "##ή": 1302,
      "##\\": 1303,
      "##ξ": 1304,
      "##ω": 1305,
      "##羅": 1306,
      "##û": 1307,
      "##Ä": 1308,
      "##­": 1309,
      "##ط": 1310,
      "##ج": 1311,
      "##ة": 1312,
      "##µ": 1313,
      "##η": 1314,
      "##श": 1315,
      "##{": 1316,
      "##′": 1317,
      "##ά": 1318,
      "##ν": 1319,
      "##Κ": 1320,
      "##Ζ": 1321,
      "##э": 1322,
      "##ć": 1323,
      "##駛": 1324,
      "##ّ": 1325,
      "##¨": 1326,
      "##Д": 1327,
      "##[": 1328,
      "##θ": 1329,
      "##έ": 1330,
      "##β": 1331,
      "##^": 1332,
      "##λ": 1333,
      "##Ð": 1334,
      "##Ò": 1335,
      "##Ö": 1336,
      "##ą": 1337,
      "##م": 1338,
      "##ظ": 1339,
      "##±": 1340,
      "##ै": 1341,
      "##ح": 1342,
      "##ش": 1343,
      "##Г": 1344,
      "##Р": 1345,
      "##Н": 1346,
      "##Ч": 1347,
      "##Я": 1348,
      "##ह": 1349,
      "##κ": 1350,
      "##ş": 1351,
      "##·": 1352,
      "##ř": 1353,
      "##ॉ": 1354,
      "##फ": 1355,
      "##ذ": 1356,
      "##ό": 1357,
      "##租": 1358,
      "##易": 1359,
      "##购": 1360,
      "##以": 1361,
      "##代": 1362,
      "##售": 1363,
      "##δ": 1364,
      "##$": 1365,
      "##Ђ": 1366,
      "##ќ": 1367,
      "##Ù": 1368,
      "##ى": 1369,
      "##氏": 1370,
      "##ő": 1371,
      "##Ú": 1372,
      "##غ": 1373,
      "##ख": 1374,
      "##ث": 1375,
      "##ņ": 1376,
      "##ज": 1377,
      "##Α": 1378,
      "##Ρ": 1379,
      "##Μ": 1380,
      "##Σ": 1381,
      "##Ε": 1382,
      "##Β": 1383,
      "##ḥ": 1384,
      "##着": 1385,
      "##你": 1386,
      "##°": 1387,
      "##ँ": 1388,
      "##ħ": 1389,
      "##Ć": 1390,
      "##خ": 1391,
      "##ี": 1392,
      "##ฬ": 1393,
      "##า": 1394,
      "##ﬂ": 1395,
      "##<": 1396,
      "##฀": 1397,
      "##绵": 1398,
      "##的": 1399,
      "##推": 1400,
      "##广": 1401,
      "##到": 1402,
      "##更": 1403,
      "##多": 1404,
      "##国": 1405,
      "##家": 1406,
      "##Ç": 1407,
      "##ÿ": 1408,
      "##ē": 1409,
      "##ز": 1410,
      "##ϊ": 1411,
      "##ッ": 1412,
      "##ク": 1413,
      "##ラ": 1414,
      "##ト": 1415,
      "##と": 1416,
      "##の": 1417,
      "##生": 1418,
      "##活": 1419,
      "##ģ": 1420,
      "##Ľ": 1421,
      "##Ι": 1422,
      "##ț": 1423,
      "##Ë": 1424,
      "##Ï": 1425,
      "##ए": 1426,
      "##ؤ": 1427,
      "##Û": 1428,
      "##õ": 1429,
      "##Ñ": 1430,
      "##ἱ": 1431,
      "##–": 1432,
      "##Χ": 1433,
      "##Ο": 1434,
      "##Π": 1435,
      "##©": 1436,
      "##觉": 1437,
      "##感": 1438,
      "##受": 1439,
      "##ण": 1440,
      "##Î": 1441,
      "##ढ": 1442,
      "##Å": 1443,
      "##。": 1444,
      "##ध": 1445,
      "##": 1446,
      "##ロ": 1447,
      "##ス": 1448,
      "##ċ": 1449,
      "##¿": 1450,
      "##象": 1451,
      "##ů": 1452,
      "##χ": 1453,
      "##ु": 1454,
      "##■": 1455,
      "##ύ": 1456,
      "##&": 1457,
      "##Ț": 1458,
      "##ی": 1459,
      "##ώ": 1460,
      "##ו": 1461,
      "##כ": 1462,
      "##ב": 1463,
      "##א": 1464,
      "##Ô": 1465,
      "##ء": 1466,
      "##ǎ": 1467,
      "##音": 1468,
      "##洞": 1469,
      "##¡": 1470,
      "##ȧ": 1471,
      "##€": 1472,
      "##छ": 1473,
      "##な": 1474,
      "##た": 1475,
      "##や": 1476,
      "##ル": 1477,
      "##ー": 1478,
      "##ム": 1479,
      "##メ": 1480,
      "##会": 1481,
      "##話": 1482,
      "##を": 1483,
      "##こ": 1484,
      "##が": 1485,
      "##あ": 1486,
      "##り": 1487,
      "##ま": 1488,
      "##す": 1489,
      "##�": 1490,
      "##他": 1491,
      "##专": 1492,
      "##顾": 1493,
      "##问": 1494,
      "##还": 1495,
      "##可": 1496,
      "##帮": 1497,
      "##助": 1498,
      "##房": 1499,
      "##地": 1500,
      "##产": 1501,
      "##市": 1502,
      "##场": 1503,
      "##ằ": 1504,
      "##Ń": 1505,
      "##¤": 1506,
      "##Ь": 1507,
      "##落": 1508,
      "##£": 1509,
      "##茱": 1510,
      "##萸": 1511,
      "##茶": 1512,
      "##ओ": 1513,
      "##ṛ": 1514,
      "##ṣ": 1515,
      "##ṇ": 1516,
      "##ө": 1517,
      "##ә": 1518,
      "##ऊ": 1519,
      "##無": 1520,
      "##料": 1521,
      "##は": 1522,
      "##格": 1523,
      "##安": 1524,
      "##Æ": 1525,
      "##村": 1526,
      "##Ψ": 1527,
      "##ď": 1528,
      "##ृ": 1529,
      "##Х": 1530,
      "##‚": 1531,
      "##Č": 1532,
      "##檠": 1533,
      "##欗": 1534,
      "##港": 1535,
      "##": 1536,
      "##ť": 1537,
      "##§": 1538,
      "##˚": 1539,
      "##Э": 1540,
      "##Ф": 1541,
      "##þ": 1542,
      "##™": 1543,
      "##": 1544,
      "##ζ": 1545,
      "##Ł": 1546,
      "##Ą": 1547,
      "##民": 1548,
      "##̶": 1549,
      "##Ě": 1550,
      "##ˆ": 1551,
      "##@": 1552,
      "##आ": 1553,
      "##く": 1554,
      "##取": 1555,
      "##得": 1556,
      "##時": 1557,
      "##に": 1558,
      "##何": 1559,
      "##起": 1560,
      "##る": 1561,
      "##か": 1562,
      "##Ό": 1563,
      "##耶": 1564,
      "##": 1565,
      "##ğ": 1566,
      "##№": 1567,
      "##Ă": 1568,
      "##ר": 1569,
      "##ה": 1570,
      "##¥": 1571,
      "##": 1572,
      "##革": 1573,
      "##命": 1574,
      "##軍": 1575,
      "##元": 1576,
      "##春": 1577,
      "##律": 1578,
      "##师": 1579,
      "##心": 1580,
      "##妄": 1581,
      "##想": 1582,
      "##ṭ": 1583,
      "##►": 1584,
      "##ἰ": 1585,
      "##Η": 1586,
      "##ञ": 1587,
      "##∑": 1588,
      "##宗": 1589,
      "##天": 1590,
      "##道": 1591,
      "##ニ": 1592,
      "##マ": 1593,
      "##平": 1594,
      "##侯": 1595,
      "##ŏ": 1596,
      "##ĕ": 1597,
      "##ψ": 1598,
      "##ļ": 1599,
      "##ὰ": 1600,
      "##ئ": 1601,
      "##Ж": 1602,
      "##ק": 1603,
      "##י": 1604,
      "##ת": 1605,
      "##": 1606,
      "##ص": 1607,
      "##행": 1608,
      "##ġ": 1609,
      "##Τ": 1610,
      "##گ": 1611,
      "##變": 1612,
      "##ƒ": 1613,
      "##´": 1614,
      "##信": 1615,
      "##来": 1616,
      "##計": 1617,
      "##画": 1618,
      "##立": 1619,
      "##Λ": 1620,
      "##𐐯": 1621,
      "##𐑆": 1622,
      "##𐐲": 1623,
      "##𐑉": 1624,
      "##𐐻": 1625,
      "##¯": 1626,
      "##变": 1627,
      "##城": 1628,
      "##友": 1629,
      "##禾": 1630,
      "##娛": 1631,
      "##樂": 1632,
      "##有": 1633,
      "##限": 1634,
      "##公": 1635,
      "##司": 1636,
      "##া": 1637,
      "##ক": 1638,
      "##수": 1639,
      "##유": 1640,
      "##차": 1641,
      "##¬": 1642,
      "##ठ": 1643,
      "##ᒪ": 1644,
      "##ᓂ": 1645,
      "##ᑦ": 1646,
      "##ᑐ": 1647,
      "##ᐊ": 1648,
      "##ᖅ": 1649,
      "##œ": 1650,
      "##~": 1651,
      "##ﬁ": 1652,
      "##ķ": 1653,
      "##њ": 1654,
      "##持": 1655,
      "##板": 1656,
      "##清": 1657,
      "##潔": 1658,
      "##ạ": 1659,
      "##ա": 1660,
      "##ն": 1661,
      "##ե": 1662,
      "##郎": 1663,
      "##三": 1664,
      "##ネ": 1665,
      "##ズ": 1666,
      "##エ": 1667,
      "##Ы": 1668,
      "##Ν": 1669,
      "##×": 1670,
      "##آ": 1671,
      "##락": 1672,
      "##♦": 1673,
      "##兵": 1674,
      "##山": 1675,
      "##ʿ": 1676,
      "##京": 1677,
      "##南": 1678,
      "##站": 1679,
      "##ῆ": 1680,
      "##야": 1681,
      "##ľ": 1682,
      "##ร": 1683,
      "##ท": 1684,
      "##ำ": 1685,
      "##อ": 1686,
      "##ห": 1687,
      "##週": 1688,
      "##レ": 1689,
      "##ビ": 1690,
      "##ュ": 1691,
      "##ٍ": 1692,
      "##シ": 1693,
      "##ྫ": 1694,
      "##ོ": 1695,
      "##ང": 1696,
      "##研": 1697,
      "##州": 1698,
      "##ض": 1699,
      "##ど": 1700,
      "##よ": 1701,
      "##う": 1702,
      "##箱": 1703,
      "##処": 1704,
      "##理": 1705,
      "##自": 1706,
      "##分": 1707,
      "##で": 1708,
      "##空": 1709,
      "##腹": 1710,
      "##ょ": 1711,
      "##グ": 1712,
      "##ア": 1713,
      "##イ": 1714,
      "##ắ": 1715,
      "##∞": 1716,
      "##●": 1717,
      "##Ъ": 1718,
      "##ơ": 1719,
      "##자": 1720,
      "##子": 1721,
      "##ד": 1722,
      "##ἶ": 1723,
      "##い": 1724,
      "##ѕ": 1725,
      "##˜": 1726,
      "##≥": 1727,
      "##˝": 1728,
      "##": 1729,
      "##ź": 1730,
      "##ў": 1731,
      "##량": 1732,
      "##→": 1733,
      "##↔": 1734,
      "##Ő": 1735,
      "##َ": 1736,
      "##ْ": 1737,
      "##ệ": 1738,
      "##洛": 1739,
      "##¶": 1740,
      "##將": 1741,
      "##¢": 1742,
      "##Ř": 1743,
      "##ש": 1744,
      "##Ž": 1745,
      "##Ϊ": 1746,
      "##锷": 1747,
      "##˘": 1748,
      "##ั": 1749,
      "##ย": 1750,
      "##Й": 1751,
      "##झ": 1752,
      "##럽": 1753,
      "##연": 1754,
      "##합": 1755,
      "##デ": 1756,
      "##ョ": 1757,
      "##德": 1758,
      "##才": 1759,
      "##让": 1760,
      "##ע": 1761,
      "##❚": 1762,
      "##↑": 1763,
      "##،": 1764,
      "##̂": 1765,
      "##": 1766,
      "##ŷ": 1767,
      "##↓": 1768,
      "##Υ": 1769,
      "##ầ": 1770,
      "##İ": 1771,
      "##®": 1772,
      "##Þ": 1773,
      "##Ý": 1774,
      "##ả": 1775,
      "##‏": 1776,
      "##З": 1777,
      "##ṯ": 1778,
      "##田": 1779,
      "##Ș": 1780,
      "##字": 1781,
      "##Б": 1782,
      "##라": 1783,
      "##ʊ": 1784,
      "##趣": 1785,
      "##出": 1786,
      "##作": 1787,
      "##为": 1788,
      "##互": 1789,
      "##联": 1790,
      "##网": 1791,
      "##日": 1792,
      "##益": 1793,
      "##普": 1794,
      "##及": 1795,
      "##ち": 1796,
      "##満": 1797,
      "##足": 1798,
      "##†": 1799,
      "##品": 1800,
      "##フ": 1801,
      "##そ": 1802,
      "##血": 1803,
      "##糖": 1804,
      "##ン": 1805,
      "##≤": 1806,
      "##ŭ": 1807,
      "##𐑅": 1808,
      "##𐐨": 1809,
      "##美": 1810,
      "##Ω": 1811,
      "##良": 1812,
      "##ű": 1813,
      "##Ί": 1814,
      "##龍": 1815,
      "##ל": 1816,
      "##ΐ": 1817,
      "##军": 1818,
      "##ὶ": 1819,
      "##决": 1820,
      "##定": 1821,
      "##将": 1822,
      "##援": 1823,
      "##נ": 1824,
      "##ס": 1825,
      "##コ": 1826,
      "##前": 1827,
      "##景": 1828,
      "##色": 1829,
      "##ַ": 1830,
      "##ג": 1831,
      "##ִ": 1832,
      "##十": 1833,
      "##八": 1834,
      "##年": 1835,
      "##戦": 1836,
      "##争": 1837,
      "##घ": 1838,
      "##倻": 1839,
      "##।": 1840,
      "##¼": 1841,
      "##洋": 1842,
      "##キ": 1843,
      "##れ": 1844,
      "##ら": 1845,
      "##时": 1846,
      "##候": 1847,
      "##er": 1848,
      "##on": 1849,
      "##he": 1850,
      "##at": 1851,
      "##en": 1852,
      "##re": 1853,
      "##in": 1854,
      "##an": 1855,
      "##or": 1856,
      "##ll": 1857,
      "##ti": 1858,
      "##es": 1859,
      "the": 1860,
      "##ar": 1861,
      "##ou": 1862,
      "di": 1863,
      "in": 1864,
      "##to": 1865,
      "##al": 1866,
      "##is": 1867,
      "##ro": 1868,
      "##ion": 1869,
      "##ic": 1870,
      "##it": 1871,
      "de": 1872,
      "##te": 1873,
      "##om": 1874,
      "an": 1875,
      "##ing": 1876,
      "##ol": 1877,
      "##ed": 1878,
      "##os": 1879,
      "##as": 1880,
      "to": 1881,
      "##am": 1882,
      "of": 1883,
      "th": 1884,
      "##et": 1885,
      "##ta": 1886,
      "un": 1887,
      "##ra": 1888,
      "you": 1889,
      "##li": 1890,
      "##ve": 1891,
      "and": 1892,
      "##le": 1893,
      "##ere": 1894,
      "con": 1895,
      "##ri": 1896,
      "re": 1897,
      "qu": 1898,
      "che": 1899,
      "##ot": 1900,
      "##ia": 1901,
      "##ut": 1902,
      "per": 1903,
      "la": 1904,
      "##ent": 1905,
      "##zion": 1906,
      "##us": 1907,
      "##lla": 1908,
      "##ci": 1909,
      "##ig": 1910,
      "##ato": 1911,
      "su": 1912,
      "pro": 1913,
      "##ce": 1914,
      "be": 1915,
      "ha": 1916,
      "##..": 1917,
      "ne": 1918,
      "##io": 1919,
      "##un": 1920,
      "il": 1921,
      "##are": 1922,
      "com": 1923,
      "##ow": 1924,
      "##ch": 1925,
      "##id": 1926,
      "se": 1927,
      "...": 1928,
      "is": 1929,
      "for": 1930,
      "st": 1931,
      "on": 1932,
      "##ess": 1933,
      "##do": 1934,
      "##ter": 1935,
      "##pp": 1936,
      "##im": 1937,
      "##zione": 1938,
      "al": 1939,
      "##ver": 1940,
      "##ay": 1941,
      "me": 1942,
      "##ur": 1943,
      "##ag": 1944,
      "le": 1945,
      "it": 1946,
      "that": 1947,
      "##res": 1948,
      "non": 1949,
      "##ente": 1950,
      "##se": 1951,
      "##il": 1952,
      "##cc": 1953,
      "##mp": 1954,
      "wh": 1955,
      "##ono": 1956,
      "do": 1957,
      "##ate": 1958,
      "##ation": 1959,
      "##ati": 1960,
      "##di": 1961,
      "##pe": 1962,
      "##ad": 1963,
      "##ir": 1964,
      "da": 1965,
      "del": 1966,
      "##no": 1967,
      "as": 1968,
      "all": 1969,
      "##el": 1970,
      "##ale": 1971,
      "##ith": 1972,
      "##ul": 1973,
      "##ac": 1974,
      "par": 1975,
      "##ell": 1976,
      "##tion": 1977,
      "##bb": 1978,
      "##tic": 1979,
      "es": 1980,
      "una": 1981,
      "##za": 1982,
      "with": 1983,
      "The": 1984,
      "##ff": 1985,
      "##all": 1986,
      "##si": 1987,
      "dell": 1988,
      "##hi": 1989,
      "##od": 1990,
      "##ke": 1991,
      "##ma": 1992,
      "at": 1993,
      "##and": 1994,
      "##ly": 1995,
      "##amo": 1996,
      "##enti": 1997,
      "##end": 1998,
      "li": 1999,
      "##mb": 2000,
      "##so": 2001,
      "##th": 2002,
      "ma": 2003,
      "##og": 2004,
      "##ore": 2005,
      "Com": 2006,
      "si": 2007,
      "##ld": 2008,
      "##ento": 2009,
      "20": 2010,
      "della": 2011,
      "##ata": 2012,
      "##ht": 2013,
      "not": 2014,
      "we": 2015,
      "ques": 2016,
      "##ie": 2017,
      "are": 2018,
      "lo": 2019,
      "this": 2020,
      "##ost": 2021,
      "You": 2022,
      "Non": 2023,
      "Th": 2024,
      "##ct": 2025,
      "##va": 2026,
      "##nd": 2027,
      "##ment": 2028,
      "##op": 2029,
      "or": 2030,
      "##ort": 2031,
      "##ali": 2032,
      "##vi": 2033,
      "##ano": 2034,
      "##ust": 2035,
      "##vo": 2036,
      "##ill": 2037,
      "##ione": 2038,
      "##che": 2039,
      "have": 2040,
      "was": 2041,
      "##ap": 2042,
      "sh": 2043,
      "cos": 2044,
      "##ine": 2045,
      "go": 2046,
      "##ui": 2047,
      "he": 2048,
      "##uro": 2049,
      "##ant": 2050,
      "##zz": 2051,
      "so": 2052,
      "te": 2053,
      "sono": 2054,
      "##olo": 2055,
      "##ould": 2056,
      "no": 2057,
      "tr": 2058,
      "##iss": 2059,
      "##um": 2060,
      "##st": 2061,
      "ad": 2062,
      "pi": 2063,
      "##ight": 2064,
      "##ica": 2065,
      "Wh": 2066,
      "imp": 2067,
      "##bi": 2068,
      "No": 2069,
      "##uo": 2070,
      "##ni": 2071,
      "pos": 2072,
      "##ure": 2073,
      "##ue": 2074,
      "##one": 2075,
      "can": 2076,
      "##ori": 2077,
      "ar": 2078,
      "##ard": 2079,
      "##est": 2080,
      "##ble": 2081,
      "gi": 2082,
      "In": 2083,
      "comp": 2084,
      "##ist": 2085,
      "##ità": 2086,
      "pre": 2087,
      "your": 2088,
      "##mo": 2089,
      "It": 2090,
      "##na": 2091,
      "ex": 2092,
      "sp": 2093,
      "app": 2094,
      "cont": 2095,
      "##la": 2096,
      "##ene": 2097,
      "##ando": 2098,
      "sc": 2099,
      "##gg": 2100,
      "en": 2101,
      "##ers": 2102,
      "##gli": 2103,
      "kn": 2104,
      "##ome": 2105,
      "come": 2106,
      "##ity": 2107,
      "##zioni": 2108,
      "tut": 2109,
      "##lo": 2110,
      "by": 2111,
      "##rom": 2112,
      "my": 2113,
      "dei": 2114,
      "##per": 2115,
      "know": 2116,
      "Comm": 2117,
      "##mi": 2118,
      "fa": 2119,
      "fin": 2120,
      "dis": 2121,
      "##ted": 2122,
      "pres": 2123,
      "##ca": 2124,
      "inter": 2125,
      "Se": 2126,
      "##uto": 2127,
      "ab": 2128,
      "Qu": 2129,
      "St": 2130,
      "##ud": 2131,
      "200": 2132,
      "##fic": 2133,
      "##uc": 2134,
      "##ven": 2135,
      "acc": 2136,
      "ri": 2137,
      "La": 2138,
      "us": 2139,
      "am": 2140,
      "##zi": 2141,
      "co": 2142,
      "from": 2143,
      "sta": 2144,
      "ho": 2145,
      "##out": 2146,
      "19": 2147,
      "##ari": 2148,
      "##con": 2149,
      "##urope": 2150,
      "ver": 2151,
      "ci": 2152,
      "po": 2153,
      "res": 2154,
      "##ice": 2155,
      "sa": 2156,
      "##ge": 2157,
      "##amento": 2158,
      "ch": 2159,
      "##ole": 2160,
      "##ich": 2161,
      "reg": 2162,
      "##for": 2163,
      "man": 2164,
      "ti": 2165,
      "##ita": 2166,
      "##enza": 2167,
      "ess": 2168,
      "##ina": 2169,
      "He": 2170,
      "##anno": 2171,
      "wor": 2172,
      "##igli": 2173,
      "delle": 2174,
      "mi": 2175,
      "don": 2176,
      "out": 2177,
      "##ora": 2178,
      "##king": 2179,
      "##eg": 2180,
      "av": 2181,
      "##amente": 2182,
      "##iamo": 2183,
      "##ass": 2184,
      "pr": 2185,
      "##tu": 2186,
      "We": 2187,
      "chi": 2188,
      "##ast": 2189,
      "mo": 2190,
      "##co": 2191,
      "Il": 2192,
      "##ry": 2193,
      "##der": 2194,
      "will": 2195,
      "ris": 2196,
      "##oro": 2197,
      "what": 2198,
      "up": 2199,
      "nel": 2200,
      "ag": 2201,
      "alla": 2202,
      "##fer": 2203,
      "pri": 2204,
      "tra": 2205,
      "##our": 2206,
      "##oun": 2207,
      "##ici": 2208,
      "ser": 2209,
      "##ens": 2210,
      "ta": 2211,
      "Per": 2212,
      "##qu": 2213,
      "##ne": 2214,
      "##oli": 2215,
      "And": 2216,
      "##ase": 2217,
      "questo": 2218,
      "##pos": 2219,
      "there": 2220,
      "##her": 2221,
      "cons": 2222,
      "alt": 2223,
      "What": 2224,
      "Un": 2225,
      "gu": 2226,
      "##esso": 2227,
      "like": 2228,
      "but": 2229,
      "Commiss": 2230,
      "##de": 2231,
      "qual": 2232,
      "##me": 2233,
      "##ran": 2234,
      "just": 2235,
      "essere": 2236,
      "get": 2237,
      "Con": 2238,
      "##ante": 2239,
      "pu": 2240,
      "gli": 2241,
      "##etto": 2242,
      "##azione": 2243,
      "##ico": 2244,
      "##ok": 2245,
      "##ru": 2246,
      "Oh": 2247,
      "##atto": 2248,
      "about": 2249,
      "##ero": 2250,
      "##ally": 2251,
      "##oug": 2252,
      "Ma": 2253,
      "one": 2254,
      "prod": 2255,
      "##ame": 2256,
      "which": 2257,
      "##etti": 2258,
      "più": 2259,
      "##ino": 2260,
      "##ord": 2261,
      "##ack": 2262,
      "##ign": 2263,
      "##ong": 2264,
      "##att": 2265,
      "##ite": 2266,
      "here": 2267,
      "##ai": 2268,
      "has": 2269,
      "##ther": 2270,
      "vi": 2271,
      "##ini": 2272,
      "tu": 2273,
      "##anti": 2274,
      "##zza": 2275,
      "pa": 2276,
      "##mber": 2277,
      "##ink": 2278,
      "they": 2279,
      "right": 2280,
      "##ose": 2281,
      "An": 2282,
      "##ett": 2283,
      "##lle": 2284,
      "car": 2285,
      "him": 2286,
      "Ar": 2287,
      "ter": 2288,
      "inc": 2289,
      "any": 2290,
      "cre": 2291,
      "##anto": 2292,
      "##po": 2293,
      "##ous": 2294,
      "##ire": 2295,
      "##ime": 2296,
      "##ear": 2297,
      "ai": 2298,
      "##pri": 2299,
      "dire": 2300,
      "ve": 2301,
      "ric": 2302,
      "spe": 2303,
      "##ura": 2304,
      "cosa": 2305,
      "##osa": 2306,
      "##art": 2307,
      "##hen": 2308,
      "far": 2309,
      "##chi": 2310,
      "cas": 2311,
      "##ck": 2312,
      "ll": 2313,
      "her": 2314,
      "##agg": 2315,
      "##tare": 2316,
      "did": 2317,
      "##mente": 2318,
      "##use": 2319,
      "Le": 2320,
      "##ani": 2321,
      "Do": 2322,
      "De": 2323,
      "##bbe": 2324,
      "10": 2325,
      "ac": 2326,
      "##lic": 2327,
      "##eri": 2328,
      "##av": 2329,
      "##ound": 2330,
      "##ans": 2331,
      "##llo": 2332,
      "bene": 2333,
      "##hing": 2334,
      "pot": 2335,
      "##ab": 2336,
      "cer": 2337,
      "pers": 2338,
      "##rit": 2339,
      "qui": 2340,
      "##ind": 2341,
      "if": 2342,
      "##ated": 2343,
      "been": 2344,
      "ass": 2345,
      "##ance": 2346,
      "##ide": 2347,
      "conc": 2348,
      "##tto": 2349,
      "solo": 2350,
      "some": 2351,
      "want": 2352,
      "see": 2353,
      "Mi": 2354,
      "would": 2355,
      "cap": 2356,
      "pe": 2357,
      "pl": 2358,
      "abb": 2359,
      "##bile": 2360,
      "201": 2361,
      "Europe": 2362,
      "ra": 2363,
      "vis": 2364,
      "##ello": 2365,
      "tro": 2366,
      "##ary": 2367,
      "vol": 2368,
      "So": 2369,
      "anche": 2370,
      "##ult": 2371,
      "##endo": 2372,
      "That": 2373,
      "##ree": 2374,
      "##ys": 2375,
      "his": 2376,
      "mol": 2377,
      "got": 2378,
      "##ah": 2379,
      "comm": 2380,
      "##ogli": 2381,
      "cor": 2382,
      "need": 2383,
      "Si": 2384,
      "##go": 2385,
      "This": 2386,
      "Be": 2387,
      "cui": 2388,
      "time": 2389,
      "fo": 2390,
      "##fe": 2391,
      "##cis": 2392,
      "our": 2393,
      "Ok": 2394,
      "##ations": 2395,
      "##gr": 2396,
      "##ves": 2397,
      "mon": 2398,
      "suo": 2399,
      "##min": 2400,
      "##era": 2401,
      "fe": 2402,
      "##ence": 2403,
      "Ch": 2404,
      "Par": 2405,
      "##tive": 2406,
      "lav": 2407,
      "ca": 2408,
      "think": 2409,
      "who": 2410,
      "##ron": 2411,
      "##ep": 2412,
      "nella": 2413,
      "were": 2414,
      "##ug": 2415,
      "##mm": 2416,
      "sol": 2417,
      "io": 2418,
      "##ang": 2419,
      "fatto": 2420,
      "km": 2421,
      "gr": 2422,
      "##ount": 2423,
      "##ten": 2424,
      "fare": 2425,
      "##form": 2426,
      "should": 2427,
      "she": 2428,
      "##otto": 2429,
      "ind": 2430,
      "cam": 2431,
      "ever": 2432,
      "Lo": 2433,
      "Ho": 2434,
      "them": 2435,
      "##vis": 2436,
      "mar": 2437,
      "##ggi": 2438,
      "more": 2439,
      "ins": 2440,
      "Come": 2441,
      "possi": 2442,
      "##ved": 2443,
      "##man": 2444,
      "##reat": 2445,
      "##cess": 2446,
      "##ze": 2447,
      "mio": 2448,
      "cl": 2449,
      "nost": 2450,
      "##ough": 2451,
      "tutto": 2452,
      "stato": 2453,
      "##00": 2454,
      "era": 2455,
      "##cun": 2456,
      "fi": 2457,
      "dal": 2458,
      "now": 2459,
      "eff": 2460,
      "ed": 2461,
      "But": 2462,
      "All": 2463,
      "hai": 2464,
      "##int": 2465,
      "##ank": 2466,
      "parte": 2467,
      "Al": 2468,
      "sia": 2469,
      "##ss": 2470,
      "##ché": 2471,
      "##ario": 2472,
      "##eno": 2473,
      "min": 2474,
      "##tions": 2475,
      "##itt": 2476,
      "Me": 2477,
      "##cip": 2478,
      "temp": 2479,
      "##zzo": 2480,
      "Artic": 2481,
      "##ese": 2482,
      "##up": 2483,
      "##age": 2484,
      "##orn": 2485,
      "dov": 2486,
      "##pon": 2487,
      "europe": 2488,
      "gen": 2489,
      "contro": 2490,
      "Che": 2491,
      "speci": 2492,
      "##own": 2493,
      "col": 2494,
      "##uti": 2495,
      "say": 2496,
      "##way": 2497,
      "had": 2498,
      "tutti": 2499,
      "##uoi": 2500,
      "other": 2501,
      "their": 2502,
      "##ates": 2503,
      "European": 2504,
      "loro": 2505,
      "##vel": 2506,
      "',": 2507,
      "questa": 2508,
      "mat": 2509,
      "fac": 2510,
      "import": 2511,
      "back": 2512,
      "##eah": 2513,
      "##ced": 2514,
      "bu": 2515,
      "bo": 2516,
      "##ito": 2517,
      "rep": 2518,
      "'.": 2519,
      "##raz": 2520,
      "good": 2521,
      "##ress": 2522,
      "year": 2523,
      "12": 2524,
      "##bil": 2525,
      "Sono": 2526,
      "degli": 2527,
      "work": 2528,
      "##ties": 2529,
      "str": 2530,
      "comun": 2531,
      "##ain": 2532,
      "##ioni": 2533,
      "sti": 2534,
      "ro": 2535,
      "##ppo": 2536,
      "diff": 2537,
      "Mr": 2538,
      "hanno": 2539,
      "##vol": 2540,
      "##ms": 2541,
      "Well": 2542,
      "##ris": 2543,
      "when": 2544,
      ").": 2545,
      "Commission": 2546,
      "##anza": 2547,
      "ved": 2548,
      "rag": 2549,
      "sei": 2550,
      "fu": 2551,
      "##cia": 2552,
      "199": 2553,
      "under": 2554,
      "Ques": 2555,
      "seg": 2556,
      "##onna": 2557,
      "Pres": 2558,
      "could": 2559,
      "For": 2560,
      "des": 2561,
      "alle": 2562,
      "off": 2563,
      "mia": 2564,
      "rec": 2565,
      "bet": 2566,
      "##par": 2567,
      "poli": 2568,
      "fun": 2569,
      "molto": 2570,
      "##ings": 2571,
      "##ola": 2572,
      "##ments": 2573,
      "aff": 2574,
      "##vid": 2575,
      "over": 2576,
      "sua": 2577,
      "##cio": 2578,
      "##ach": 2579,
      "proble": 2580,
      "rel": 2581,
      "due": 2582,
      "##red": 2583,
      "##bili": 2584,
      "##ick": 2585,
      "shall": 2586,
      "vo": 2587,
      "med": 2588,
      "mad": 2589,
      "As": 2590,
      "prima": 2591,
      "Ne": 2592,
      "##esi": 2593,
      "how": 2594,
      "detto": 2595,
      "person": 2596,
      "##tain": 2597,
      "take": 2598,
      "##wn": 2599,
      "also": 2600,
      "##old": 2601,
      "val": 2602,
      "sul": 2603,
      "##wo": 2604,
      "##ber": 2605,
      "going": 2606,
      "##ople": 2607,
      "tal": 2608,
      "nuo": 2609,
      "gonna": 2610,
      "fir": 2611,
      "every": 2612,
      "aut": 2613,
      "sto": 2614,
      "into": 2615,
      "##ction": 2616,
      "quando": 2617,
      "##fore": 2618,
      "its": 2619,
      "##iglio": 2620,
      "way": 2621,
      "11": 2622,
      "##que": 2623,
      "only": 2624,
      "Presid": 2625,
      "##tra": 2626,
      "propri": 2627,
      "How": 2628,
      "succ": 2629,
      "ven": 2630,
      "semp": 2631,
      "Commissione": 2632,
      "##orno": 2633,
      "secon": 2634,
      "##ish": 2635,
      "Ti": 2636,
      "##ak": 2637,
      "##be": 2638,
      "##sel": 2639,
      "new": 2640,
      "##titu": 2641,
      "down": 2642,
      "),": 2643,
      "Pro": 2644,
      "##etta": 2645,
      "part": 2646,
      "Reg": 2647,
      "memb": 2648,
      "##ving": 2649,
      "##cause": 2650,
      "##rebbe": 2651,
      "Yeah": 2652,
      "She": 2653,
      "##ative": 2654,
      "supp": 2655,
      "##gram": 2656,
      "dalla": 2657,
      "##olog": 2658,
      "##iti": 2659,
      "fam": 2660,
      "If": 2661,
      "met": 2662,
      "quello": 2663,
      "day": 2664,
      "##ors": 2665,
      "##cora": 2666,
      "let": 2667,
      "##zio": 2668,
      "##ric": 2669,
      "##tre": 2670,
      "may": 2671,
      "15": 2672,
      "make": 2673,
      "Mar": 2674,
      "##zia": 2675,
      "##essi": 2676,
      "##ft": 2677,
      "mai": 2678,
      "ave": 2679,
      "uno": 2680,
      "##omet": 2681,
      "people": 2682,
      "##je": 2683,
      "##orta": 2684,
      "They": 2685,
      "op": 2686,
      "##cts": 2687,
      "##we": 2688,
      "##uzione": 2689,
      "bas": 2690,
      "##atti": 2691,
      "very": 2692,
      "where": 2693,
      "##rib": 2694,
      "##orto": 2695,
      "call": 2696,
      "leg": 2697,
      "int": 2698,
      "##da": 2699,
      "than": 2700,
      "partic": 2701,
      "sal": 2702,
      "##iste": 2703,
      "There": 2704,
      "anni": 2705,
      "##fter": 2706,
      "pass": 2707,
      "Article": 2708,
      "Is": 2709,
      "Ha": 2710,
      "##conom": 2711,
      "##gi": 2712,
      "mer": 2713,
      "##tt": 2714,
      "org": 2715,
      "ancora": 2716,
      "##amp": 2717,
      "##ON": 2718,
      "oper": 2719,
      "Ci": 2720,
      "soci": 2721,
      "these": 2722,
      "sub": 2723,
      "##thing": 2724,
      "decis": 2725,
      "must": 2726,
      "##tica": 2727,
      "Go": 2728,
      "appro": 2729,
      "sign": 2730,
      "##ena": 2731,
      "##lica": 2732,
      "##ider": 2733,
      "##qui": 2734,
      "##iente": 2735,
      "##ory": 2736,
      "##ub": 2737,
      "parl": 2738,
      "##rig": 2739,
      "Re": 2740,
      "propos": 2741,
      "##ane": 2742,
      "sar": 2743,
      "program": 2744,
      "##indi": 2745,
      "two": 2746,
      "hel": 2747,
      "sulla": 2748,
      "##tim": 2749,
      "##aggio": 2750,
      "##ents": 2751,
      "##cil": 2752,
      "does": 2753,
      "tras": 2754,
      "##rei": 2755,
      "##seg": 2756,
      "##ces": 2757,
      "##ctive": 2758,
      "##ulation": 2759,
      "lei": 2760,
      "pun": 2761,
      "Okay": 2762,
      "##fi": 2763,
      "cent": 2764,
      "artic": 2765,
      "first": 2766,
      "tell": 2767,
      "necess": 2768,
      "quanto": 2769,
      "que": 2770,
      "Cons": 2771,
      "again": 2772,
      "##tiv": 2773,
      "##les": 2774,
      "##oglio": 2775,
      "gra": 2776,
      "##mer": 2777,
      "ora": 2778,
      "##ond": 2779,
      "dist": 2780,
      "##itu": 2781,
      "count": 2782,
      "##lud": 2783,
      "##ical": 2784,
      "##omething": 2785,
      "##vers": 2786,
      "##razie": 2787,
      "##get": 2788,
      "##tr": 2789,
      "exp": 2790,
      "##gni": 2791,
      "mom": 2792,
      "then": 2793,
      "##lie": 2794,
      "##ating": 2795,
      "può": 2796,
      "##ational": 2797,
      "happ": 2798,
      "ele": 2799,
      "##cco": 2800,
      "##uta": 2801,
      "piu": 2802,
      "##col": 2803,
      "##cid": 2804,
      "mis": 2805,
      "##amb": 2806,
      "tuo": 2807,
      "look": 2808,
      "altro": 2809,
      "poss": 2810,
      "##bbiamo": 2811,
      "lavoro": 2812,
      "raga": 2813,
      "##ater": 2814,
      "trov": 2815,
      "##asi": 2816,
      "tempo": 2817,
      "conf": 2818,
      "##ody": 2819,
      "inf": 2820,
      "##ph": 2821,
      "sor": 2822,
      "ev": 2823,
      "nell": 2824,
      "most": 2825,
      "##ild": 2826,
      "##atori": 2827,
      "condi": 2828,
      "##aggi": 2829,
      "said": 2830,
      "regol": 2831,
      "econom": 2832,
      "##fica": 2833,
      "##uck": 2834,
      "nu": 2835,
      "##ions": 2836,
      "##other": 2837,
      "##ament": 2838,
      "ide": 2839,
      "pens": 2840,
      "too": 2841,
      "18": 2842,
      "sic": 2843,
      "abbiamo": 2844,
      "##imo": 2845,
      "even": 2846,
      "##tti": 2847,
      "##urn": 2848,
      "##ute": 2849,
      "##ful": 2850,
      "Hey": 2851,
      "##uch": 2852,
      "really": 2853,
      "CE": 2854,
      "nor": 2855,
      "ul": 2856,
      "##als": 2857,
      "didn": 2858,
      "##almente": 2859,
      "##utto": 2860,
      "modo": 2861,
      "something": 2862,
      "##cus": 2863,
      "dom": 2864,
      "trans": 2865,
      "##edi": 2866,
      "13": 2867,
      "##ought": 2868,
      "##day": 2869,
      "ok": 2870,
      "imm": 2871,
      "because": 2872,
      "così": 2873,
      "finan": 2874,
      "##ung": 2875,
      "##ona": 2876,
      "occ": 2877,
      "sig": 2878,
      "##essun": 2879,
      "sempre": 2880,
      "##ern": 2881,
      "gener": 2882,
      "casa": 2883,
      "those": 2884,
      "##pa": 2885,
      "##cy": 2886,
      "uom": 2887,
      "##vero": 2888,
      "##ana": 2889,
      "Chi": 2890,
      "##cosa": 2891,
      "well": 2892,
      "noi": 2893,
      "Member": 2894,
      "##unity": 2895,
      "el": 2896,
      "mod": 2897,
      "##ren": 2898,
      "inform": 2899,
      "Cosa": 2900,
      "dove": 2901,
      "help": 2902,
      "##ordo": 2903,
      "30": 2904,
      "##iace": 2905,
      "##ave": 2906,
      "##ath": 2907,
      "va": 2908,
      "EU": 2909,
      "br": 2910,
      "def": 2911,
      "prote": 2912,
      "##row": 2913,
      "##agli": 2914,
      "Beh": 2915,
      "##lly": 2916,
      "##agra": 2917,
      "##tà": 2918,
      "ob": 2919,
      "##aria": 2920,
      "14": 2921,
      "Stati": 2922,
      "stata": 2923,
      "##lace": 2924,
      "pol": 2925,
      "gio": 2926,
      "##esta": 2927,
      "mean": 2928,
      "fav": 2929,
      "##tern": 2930,
      "altri": 2931,
      "tua": 2932,
      "##zzi": 2933,
      "##ede": 2934,
      "contin": 2935,
      "EC": 2936,
      "ini": 2937,
      "##atore": 2938,
      "##ande": 2939,
      "via": 2940,
      "pag": 2941,
      "##ittle": 2942,
      "indi": 2943,
      "after": 2944,
      "made": 2945,
      "16": 2946,
      "find": 2947,
      "##ily": 2948,
      "##iche": 2949,
      "##enta": 2950,
      "Io": 2951,
      "##lus": 2952,
      "senti": 2953,
      "##oper": 2954,
      "las": 2955,
      "##self": 2956,
      "sotto": 2957,
      "prin": 2958,
      "##ady": 2959,
      "##ensi": 2960,
      "##igh": 2961,
      "live": 2962,
      "##imento": 2963,
      "qualcosa": 2964,
      "years": 2965,
      "##iare": 2966,
      "vita": 2967,
      "Sh": 2968,
      "##ouncil": 2969,
      "##ather": 2970,
      "parti": 2971,
      "real": 2972,
      "##lease": 2973,
      "use": 2974,
      "Di": 2975,
      "lui": 2976,
      "fine": 2977,
      "long": 2978,
      "cosi": 2979,
      "##forma": 2980,
      "Sta": 2981,
      "##land": 2982,
      "europea": 2983,
      "dur": 2984,
      "##ying": 2985,
      "cost": 2986,
      "##ures": 2987,
      "cal": 2988,
      "pic": 2989,
      "##otti": 2990,
      "articolo": 2991,
      "Jo": 2992,
      "never": 2993,
      "##ret": 2994,
      "17": 2995,
      "##tura": 2996,
      "##fo": 2997,
      ".\"": 2998,
      "##rough": 2999,
      "States": 3000,
      "Council": 3001,
      "##cep": 3002,
      "##ular": 3003,
      "arri": 3004,
      "chiam": 3005,
      "much": 3006,
      "ogni": 3007,
      "little": 3008,
      "paragra": 3009,
      "before": 3010,
      "Li": 3011,
      "prog": 3012,
      "opp": 3013,
      "produ": 3014,
      "##llow": 3015,
      "\".": 3016,
      "sin": 3017,
      "Consiglio": 3018,
      "##glio": 3019,
      "##esse": 3020,
      "##uard": 3021,
      "##arti": 3022,
      "##osi": 3023,
      "form": 3024,
      "##mon": 3025,
      "prend": 3026,
      "##able": 3027,
      "bis": 3028,
      "situ": 3029,
      "nei": 3030,
      "Te": 3031,
      "diver": 3032,
      "Don": 3033,
      "lu": 3034,
      "great": 3035,
      "##ouse": 3036,
      "volta": 3037,
      "differ": 3038,
      "##vere": 3039,
      "##oss": 3040,
      "migli": 3041,
      "##vil": 3042,
      "##ann": 3043,
      "ten": 3044,
      "##oria": 3045,
      "membri": 3046,
      "##eni": 3047,
      "such": 3048,
      "consider": 3049,
      "set": 3050,
      "##cato": 3051,
      "put": 3052,
      "vero": 3053,
      "sm": 3054,
      "bl": 3055,
      "##enso": 3056,
      "##usto": 3057,
      "amb": 3058,
      "loc": 3059,
      "Vi": 3060,
      "through": 3061,
      "##oup": 3062,
      "##xt": 3063,
      "##riend": 3064,
      "prof": 3065,
      "##ER": 3066,
      "##yste": 3067,
      "sare": 3068,
      "asp": 3069,
      "alcun": 3070,
      "##ise": 3071,
      "question": 3072,
      "Why": 3073,
      "quella": 3074,
      "ke": 3075,
      "##AT": 3076,
      "perio": 3077,
      "fr": 3078,
      "jo": 3079,
      "dall": 3080,
      "er": 3081,
      "life": 3082,
      "dopo": 3083,
      "sim": 3084,
      "princip": 3085,
      "##bl": 3086,
      "dav": 3087,
      "still": 3088,
      "--": 3089,
      "uti": 3090,
      "love": 3091,
      "deve": 3092,
      "My": 3093,
      "disp": 3094,
      "aver": 3095,
      "super": 3096,
      "##ween": 3097,
      "regolamento": 3098,
      "##uri": 3099,
      "perché": 3100,
      "proprio": 3101,
      "prov": 3102,
      "rig": 3103,
      "Regulation": 3104,
      "mil": 3105,
      "hand": 3106,
      "sap": 3107,
      "inv": 3108,
      "ph": 3109,
      "##ket": 3110,
      "Ad": 3111,
      "tre": 3112,
      "place": 3113,
      "Sp": 3114,
      "proced": 3115,
      "last": 3116,
      "respon": 3117,
      "senza": 3118,
      "cir": 3119,
      "siste": 3120,
      "God": 3121,
      "Ehi": 3122,
      "conos": 3123,
      "Questo": 3124,
      "quell": 3125,
      "Gi": 3126,
      "##elo": 3127,
      "rim": 3128,
      "follow": 3129,
      "##amenti": 3130,
      "dim": 3131,
      "port": 3132,
      "##AR": 3133,
      "Unione": 3134,
      "##ner": 3135,
      "##atta": 3136,
      "between": 3137,
      "siamo": 3138,
      "##lli": 3139,
      "Let": 3140,
      "why": 3141,
      "25": 3142,
      "##ott": 3143,
      "posi": 3144,
      "##ait": 3145,
      "rela": 3146,
      "rapp": 3147,
      "##ork": 3148,
      "##cial": 3149,
      "Fran": 3150,
      "nat": 3151,
      "##zo": 3152,
      "##ual": 3153,
      "Thank": 3154,
      "##tro": 3155,
      "serv": 3156,
      "Not": 3157,
      "##lig": 3158,
      "##essa": 3159,
      "bisog": 3160,
      "thing": 3161,
      "##oth": 3162,
      "Sei": 3163,
      "##ION": 3164,
      "includ": 3165,
      "pubb": 3166,
      "##velop": 3167,
      "==": 3168,
      "##ries": 3169,
      "##tico": 3170,
      "##ara": 3171,
      "own": 3172,
      "Hai": 3173,
      "being": 3174,
      "kill": 3175,
      "caso": 3176,
      "sec": 3177,
      "##assi": 3178,
      "##bo": 3179,
      "servi": 3180,
      "##act": 3181,
      "##oso": 3182,
      "##erv": 3183,
      "Grazie": 3184,
      "giorno": 3185,
      "##hed": 3186,
      "##chio": 3187,
      "##mbra": 3188,
      "198": 3189,
      "Yes": 3190,
      "give": 3191,
      "visto": 3192,
      "##ccia": 3193,
      "##etro": 3194,
      "point": 3195,
      "feel": 3196,
      "##ga": 3197,
      "##esto": 3198,
      "vost": 3199,
      "##zionale": 3200,
      "andare": 3201,
      "posso": 3202,
      "fil": 3203,
      "##ctor": 3204,
      "gover": 3205,
      "##arsi": 3206,
      "To": 3207,
      "fl": 3208,
      "##ins": 3209,
      "world": 3210,
      "##zzazione": 3211,
      "##vole": 3212,
      "##hip": 3213,
      "Community": 3214,
      "auto": 3215,
      "Su": 3216,
      "Sign": 3217,
      "ulti": 3218,
      "fos": 3219,
      "##isce": 3220,
      "idea": 3221,
      "00": 3222,
      "end": 3223,
      "##ace": 3224,
      "syste": 3225,
      "state": 3226,
      "##ange": 3227,
      "May": 3228,
      "##ende": 3229,
      "##cted": 3230,
      "talk": 3231,
      "##ting": 3232,
      "add": 3233,
      "cour": 3234,
      "##ffici": 3235,
      "cle": 3236,
      "##cuno": 3237,
      "doing": 3238,
      "##ways": 3239,
      "show": 3240,
      "won": 3241,
      "##cere": 3242,
      "presente": 3243,
      "used": 3244,
      "id": 3245,
      "niente": 3246,
      "base": 3247,
      "happen": 3248,
      "##nore": 3249,
      "cose": 3250,
      "quel": 3251,
      "##armi": 3252,
      "nessun": 3253,
      "uomo": 3254,
      "present": 3255,
      "Where": 3256,
      "same": 3257,
      "men": 3258,
      "21": 3259,
      "##iglia": 3260,
      "okay": 3261,
      "##vano": 3262,
      "##udi": 3263,
      "utili": 3264,
      "##port": 3265,
      "na": 3266,
      "##ds": 3267,
      "poi": 3268,
      "##erg": 3269,
      "tratt": 3270,
      "applica": 3271,
      "Sì": 3272,
      "sur": 3273,
      "Va": 3274,
      "num": 3275,
      "informa": 3276,
      "belie": 3277,
      "##IS": 3278,
      "Car": 3279,
      "nostro": 3280,
      "Euro": 3281,
      "perche": 3282,
      "##esti": 3283,
      "##ister": 3284,
      "##oney": 3285,
      "persone": 3286,
      "lim": 3287,
      "Union": 3288,
      "##kes": 3289,
      "case": 3290,
      "##ile": 3291,
      "wan": 3292,
      "davvero": 3293,
      "mie": 3294,
      "dest": 3295,
      "rid": 3296,
      "night": 3297,
      "mor": 3298,
      "pur": 3299,
      "##cchi": 3300,
      "Dio": 3301,
      "##erci": 3302,
      "##ards": 3303,
      "##istr": 3304,
      "market": 3305,
      "bisogno": 3306,
      "particol": 3307,
      "dice": 3308,
      "accordo": 3309,
      "Tu": 3310,
      "friend": 3311,
      "##ami": 3312,
      "stra": 3313,
      "lot": 3314,
      "develop": 3315,
      "##rà": 3316,
      "report": 3317,
      "On": 3318,
      "stud": 3319,
      "##its": 3320,
      "##ural": 3321,
      "data": 3322,
      "fuori": 3323,
      "##vilu": 3324,
      "##tel": 3325,
      "many": 3326,
      "##irl": 3327,
      "##LL": 3328,
      "em": 3329,
      "bus": 3330,
      "Just": 3331,
      "Gli": 3332,
      "richi": 3333,
      "##adre": 3334,
      "Now": 3335,
      "sure": 3336,
      "##ution": 3337,
      "##ty": 3338,
      "22": 3339,
      "bre": 3340,
      "acqu": 3341,
      "bamb": 3342,
      "concern": 3343,
      "##iew": 3344,
      "Perche": 3345,
      "Dire": 3346,
      "##ited": 3347,
      "Can": 3348,
      "pop": 3349,
      "Co": 3350,
      "fer": 3351,
      "President": 3352,
      "sch": 3353,
      "##ggio": 3354,
      "##ek": 3355,
      "nuovo": 3356,
      "##enze": 3357,
      "##mmo": 3358,
      "home": 3359,
      "thought": 3360,
      "##ria": 3361,
      "At": 3362,
      "##bilità": 3363,
      "##ativa": 3364,
      "##ices": 3365,
      "CO": 3366,
      "ce": 3367,
      "##oni": 3368,
      "##ima": 3369,
      "##ista": 3370,
      "##uito": 3371,
      "Who": 3372,
      "modi": 3373,
      "##pi": 3374,
      "comple": 3375,
      "dirit": 3376,
      "##uction": 3377,
      "##anda": 3378,
      "ask": 3379,
      "applic": 3380,
      "information": 3381,
      "play": 3382,
      "tutte": 3383,
      "svilu": 3384,
      "voglio": 3385,
      "##EN": 3386,
      "##cri": 3387,
      "##ont": 3388,
      "sorry": 3389,
      "##omm": 3390,
      "indust": 3391,
      "anno": 3392,
      "##ower": 3393,
      "En": 3394,
      "##ba": 3395,
      "punto": 3396,
      "ste": 3397,
      "24": 3398,
      "vic": 3399,
      "Ro": 3400,
      "term": 3401,
      "incre": 3402,
      "care": 3403,
      "dev": 3404,
      "posto": 3405,
      "sos": 3406,
      "dec": 3407,
      "Sa": 3408,
      "##ually": 3409,
      "##ried": 3410,
      "specific": 3411,
      "Ag": 3412,
      "23": 3413,
      "Pos": 3414,
      "organi": 3415,
      "line": 3416,
      "grande": 3417,
      "##...": 3418,
      "stand": 3419,
      "##body": 3420,
      "dispos": 3421,
      "Bo": 3422,
      "rit": 3423,
      "##liament": 3424,
      "questi": 3425,
      "favore": 3426,
      "##ely": 3427,
      "Parl": 3428,
      "always": 3429,
      "Look": 3430,
      "inte": 3431,
      "momento": 3432,
      "Comun": 3433,
      "continu": 3434,
      "act": 3435,
      "risp": 3436,
      "Are": 3437,
      "Presidente": 3438,
      "bro": 3439,
      "nelle": 3440,
      "red": 3441,
      "around": 3442,
      "mondo": 3443,
      "##tit": 3444,
      "##eria": 3445,
      "##ateg": 3446,
      "found": 3447,
      "possono": 3448,
      "##tiche": 3449,
      "paragrafo": 3450,
      "name": 3451,
      "Allora": 3452,
      "##usa": 3453,
      "##mbre": 3454,
      "orig": 3455,
      "##pend": 3456,
      "esp": 3457,
      "##ness": 3458,
      "##let": 3459,
      "meet": 3460,
      "##EC": 3461,
      "picc": 3462,
      "Una": 3463,
      "keep": 3464,
      "quindi": 3465,
      "##IN": 3466,
      "better": 3467,
      "##ons": 3468,
      "##til": 3469,
      "things": 3470,
      "auth": 3471,
      "##cu": 3472,
      "anything": 3473,
      "accord": 3474,
      "##abil": 3475,
      "att": 3476,
      "bar": 3477,
      "##ativo": 3478,
      "II": 3479,
      "away": 3480,
      "coll": 3481,
      "gru": 3482,
      "##ES": 3483,
      "Pa": 3484,
      "##atic": 3485,
      "ese": 3486,
      "meas": 3487,
      "voi": 3488,
      "##ject": 3489,
      "cli": 3490,
      "sop": 3491,
      "Ex": 3492,
      "old": 3493,
      "fut": 3494,
      "blo": 3495,
      "##sp": 3496,
      "ali": 3497,
      "Or": 3498,
      "order": 3499,
      "Parliament": 3500,
      "prom": 3501,
      "stesso": 3502,
      "cri": 3503,
      "vedere": 3504,
      "##rod": 3505,
      "##cel": 3506,
      "dai": 3507,
      "Parlamento": 3508,
      "##vent": 3509,
      "nome": 3510,
      "wom": 3511,
      "##uole": 3512,
      "cur": 3513,
      "tele": 3514,
      "##ps": 3515,
      "prodotti": 3516,
      "signi": 3517,
      "##vin": 3518,
      "fact": 3519,
      "nostra": 3520,
      "##tical": 3521,
      "##stand": 3522,
      "secondo": 3523,
      "##AN": 3524,
      "##pect": 3525,
      "##erà": 3526,
      "dir": 3527,
      "##usti": 3528,
      "girl": 3529,
      "three": 3530,
      "When": 3531,
      "Quindi": 3532,
      "pes": 3533,
      "Po": 3534,
      "##come": 3535,
      "##sie": 3536,
      "##isc": 3537,
      "europeo": 3538,
      "Cre": 3539,
      "tale": 3540,
      "particular": 3541,
      "gran": 3542,
      "##anta": 3543,
      "tipo": 3544,
      "refer": 3545,
      "'?": 3546,
      "Cer": 3547,
      "##tività": 3548,
      "avere": 3549,
      "paesi": 3550,
      "por": 3551,
      "lavor": 3552,
      "##ida": 3553,
      "believe": 3554,
      "quali": 3555,
      "##via": 3556,
      "perm": 3557,
      "##gra": 3558,
      "##val": 3559,
      "comb": 3560,
      "fre": 3561,
      "tutta": 3562,
      "system": 3563,
      "intern": 3564,
      "##por": 3565,
      "pia": 3566,
      "##anis": 3567,
      "guard": 3568,
      "##agn": 3569,
      "##ardo": 3570,
      "##cn": 3571,
      "##ettere": 3572,
      "##bbero": 3573,
      "##iness": 3574,
      "kind": 3575,
      "bi": 3576,
      "##bor": 3577,
      "without": 3578,
      "area": 3579,
      "anim": 3580,
      "suoi": 3581,
      "##atch": 3582,
      "##ette": 3583,
      "countries": 3584,
      "##sa": 3585,
      "##esa": 3586,
      "Quando": 3587,
      "mal": 3588,
      "già": 3589,
      "##età": 3590,
      "miss": 3591,
      "##ning": 3592,
      "##alizz": 3593,
      "altra": 3594,
      "mill": 3595,
      "rest": 3596,
      "ann": 3597,
      "##atura": 3598,
      "##rac": 3599,
      "stai": 3600,
      "high": 3601,
      "##ken": 3602,
      "stati": 3603,
      "lasci": 3604,
      "head": 3605,
      "TH": 3606,
      "Bu": 3607,
      "##ortun": 3608,
      "##bility": 3609,
      "torn": 3610,
      "lib": 3611,
      "sing": 3612,
      "ord": 3613,
      "told": 3614,
      "##ency": 3615,
      "important": 3616,
      "##ters": 3617,
      "deter": 3618,
      "offer": 3619,
      "open": 3620,
      "##OR": 3621,
      "hum": 3622,
      "000": 3623,
      "##orni": 3624,
      "##ardi": 3625,
      "##azioni": 3626,
      "child": 3627,
      "##ession": 3628,
      "31": 3629,
      "##resent": 3630,
      "gar": 3631,
      "vuoi": 3632,
      "finanzi": 3633,
      "meglio": 3634,
      "each": 3635,
      "##ined": 3636,
      "sistema": 3637,
      "Sto": 3638,
      "Tut": 3639,
      "##peri": 3640,
      "##arie": 3641,
      "##ready": 3642,
      "##ines": 3643,
      "##asse": 3644,
      "relazione": 3645,
      "indic": 3646,
      "altre": 3647,
      "mani": 3648,
      "queste": 3649,
      "oggi": 3650,
      "##less": 3651,
      "##arlo": 3652,
      "##ird": 3653,
      "Da": 3654,
      "##aro": 3655,
      "course": 3656,
      "possibile": 3657,
      "##ature": 3658,
      "mass": 3659,
      "provid": 3660,
      "padre": 3661,
      "list": 3662,
      "mess": 3663,
      "##eng": 3664,
      "Your": 3665,
      "week": 3666,
      "noti": 3667,
      "##ently": 3668,
      "requi": 3669,
      "kid": 3670,
      "##su": 3671,
      "beh": 3672,
      "##enzi": 3673,
      "already": 3674,
      "house": 3675,
      "effe": 3676,
      "##very": 3677,
      "##ies": 3678,
      "cerc": 3679,
      "char": 3680,
      "sost": 3681,
      "##ever": 3682,
      "number": 3683,
      "ment": 3684,
      "sarà": 3685,
      "##line": 3686,
      "Sc": 3687,
      "##uarda": 3688,
      "Cos": 3689,
      "problema": 3690,
      "Good": 3691,
      "attu": 3692,
      "Am": 3693,
      "##sieme": 3694,
      "sci": 3695,
      "pub": 3696,
      "ben": 3697,
      "both": 3698,
      "qualche": 3699,
      "informazioni": 3700,
      "Ora": 3701,
      "##ared": 3702,
      "done": 3703,
      "start": 3704,
      "support": 3705,
      "offic": 3706,
      "wr": 3707,
      "fosse": 3708,
      "##alis": 3709,
      "products": 3710,
      "##ts": 3711,
      "level": 3712,
      "might": 3713,
      "cit": 3714,
      "dr": 3715,
      "pay": 3716,
      "inizi": 3717,
      "money": 3718,
      "particolare": 3719,
      "entr": 3720,
      "month": 3721,
      "signor": 3722,
      "agli": 3723,
      "room": 3724,
      "racc": 3725,
      "##ator": 3726,
      "Ed": 3727,
      "fino": 3728,
      "big": 3729,
      "27": 3730,
      "contrib": 3731,
      "Signor": 3732,
      "tecn": 3733,
      "cooper": 3734,
      "Nel": 3735,
      "abbia": 3736,
      "star": 3737,
      "50": 3738,
      "##amma": 3739,
      "##urezza": 3740,
      "##oking": 3741,
      "chied": 3742,
      "##IC": 3743,
      "qualcuno": 3744,
      "##resti": 3745,
      "##ccup": 3746,
      "Cap": 3747,
      "##tanto": 3748,
      "today": 3749,
      "sarebbe": 3750,
      "Ger": 3751,
      "##iao": 3752,
      "tot": 3753,
      "law": 3754,
      "another": 3755,
      "within": 3756,
      "##IT": 3757,
      "##utt": 3758,
      "process": 3759,
      "##chn": 3760,
      "second": 3761,
      "##fied": 3762,
      "diretti": 3763,
      "2007": 3764,
      "Qual": 3765,
      "uni": 3766,
      "ear": 3767,
      "Did": 3768,
      "2006": 3769,
      "primo": 3770,
      "mus": 3771,
      "New": 3772,
      "##ogo": 3773,
      "##men": 3774,
      "ado": 3775,
      "Fin": 3776,
      "quale": 3777,
      "wait": 3778,
      "State": 3779,
      "##any": 3780,
      "##bito": 3781,
      "energ": 3782,
      "Dov": 3783,
      "26": 3784,
      "Rep": 3785,
      "##ettore": 3786,
      "\",": 3787,
      "nothing": 3788,
      "##zionali": 3789,
      "best": 3790,
      "public": 3791,
      "Es": 3792,
      "##uire": 3793,
      "emp": 3794,
      "file": 3795,
      "dello": 3796,
      "vole": 3797,
      "against": 3798,
      "##ished": 3799,
      "onore": 3800,
      "##orità": 3801,
      "sai": 3802,
      "##ark": 3803,
      "Perché": 3804,
      "##atter": 3805,
      "Questa": 3806,
      "28": 3807,
      "politica": 3808,
      "guy": 3809,
      "understand": 3810,
      "successo": 3811,
      "run": 3812,
      "##itte": 3813,
      "##ake": 3814,
      "##diamo": 3815,
      "##menti": 3816,
      "amico": 3817,
      "##dition": 3818,
      "##icy": 3819,
      "norm": 3820,
      "mercato": 3821,
      "mag": 3822,
      "troppo": 3823,
      "programma": 3824,
      "inves": 3825,
      "##arci": 3826,
      "##itato": 3827,
      "incon": 3828,
      "allora": 3829,
      "##ton": 3830,
      "fra": 3831,
      "##omp": 3832,
      "2004": 3833,
      "doesn": 3834,
      "##itare": 3835,
      "sembra": 3836,
      "alm": 3837,
      "setti": 3838,
      "following": 3839,
      "Gu": 3840,
      "deb": 3841,
      "meno": 3842,
      "rip": 3843,
      "everything": 3844,
      "sb": 3845,
      "parlare": 3846,
      "viene": 3847,
      "please": 3848,
      "##ason": 3849,
      "##ety": 3850,
      "main": 3851,
      "##unque": 3852,
      "29": 3853,
      "Uni": 3854,
      "##tabl": 3855,
      "agree": 3856,
      "war": 3857,
      "##vato": 3858,
      "aveva": 3859,
      "##alità": 3860,
      "tanto": 3861,
      "clear": 3862,
      "livello": 3863,
      "different": 3864,
      "Abbiamo": 3865,
      "origin": 3866,
      "##RO": 3867,
      "##ade": 3868,
      "##hn": 3869,
      "##work": 3870,
      "means": 3871,
      "anti": 3872,
      "thank": 3873,
      "stat": 3874,
      "turn": 3875,
      "##gn": 3876,
      "bad": 3877,
      "utilizz": 3878,
      "Bar": 3879,
      "##gether": 3880,
      "attività": 3881,
      "##oltre": 3882,
      "##lement": 3883,
      "ref": 3884,
      "establ": 3885,
      "tes": 3886,
      "bra": 3887,
      "um": 3888,
      "devo": 3889,
      "lead": 3890,
      "##ye": 3891,
      "mac": 3892,
      "occup": 3893,
      "aggi": 3894,
      "sicurezza": 3895,
      "Stato": 3896,
      "credo": 3897,
      "Articolo": 3898,
      "Comunità": 3899,
      "regard": 3900,
      "##mpio": 3901,
      "cond": 3902,
      "##ool": 3903,
      "agric": 3904,
      "wanted": 3905,
      "left": 3906,
      "settiman": 3907,
      "##ross": 3908,
      "country": 3909,
      "##ital": 3910,
      "insieme": 3911,
      "asso": 3912,
      "ot": 3913,
      "##orr": 3914,
      "bel": 3915,
      "##iore": 3916,
      "##part": 3917,
      "attra": 3918,
      "##ete": 3919,
      "2005": 3920,
      "##ili": 3921,
      "##tivi": 3922,
      "importante": 3923,
      "##dy": 3924,
      "##ants": 3925,
      "##endere": 3926,
      "family": 3927,
      "equi": 3928,
      "puoi": 3929,
      "vari": 3930,
      "compet": 3931,
      "lun": 3932,
      "sull": 3933,
      "##ended": 3934,
      "sviluppo": 3935,
      "dalle": 3936,
      "ret": 3937,
      "##cer": 3938,
      "male": 3939,
      "##entr": 3940,
      "hear": 3941,
      "vuole": 3942,
      "together": 3943,
      "face": 3944,
      "'...": 3945,
      "Br": 3946,
      "guys": 3947,
      "atten": 3948,
      "comune": 3949,
      "fron": 3950,
      "##ny": 3951,
      "##orrei": 3952,
      "##tis": 3953,
      "##bs": 3954,
      "##led": 3955,
      "100": 3956,
      "est": 3957,
      "fur": 3958,
      "##ger": 3959,
      "##razione": 3960,
      "##rai": 3961,
      "COM": 3962,
      "group": 3963,
      "Pre": 3964,
      "decisione": 3965,
      "dispiace": 3966,
      "lar": 3967,
      "segu": 3968,
      "hour": 3969,
      "oss": 3970,
      "Then": 3971,
      "certain": 3972,
      "Europa": 3973,
      "materi": 3974,
      "direttiva": 3975,
      "##tivo": 3976,
      "Dove": 3977,
      "tim": 3978,
      "miei": 3979,
      "Mo": 3980,
      "##cita": 3981,
      "numero": 3982,
      "tri": 3983,
      "test": 3984,
      "since": 3985,
      "dra": 3986,
      "Cor": 3987,
      "##cuss": 3988,
      "Get": 3989,
      "Sal": 3990,
      "gia": 3991,
      "contr": 3992,
      "euro": 3993,
      "##els": 3994,
      "while": 3995,
      "gruppo": 3996,
      "piace": 3997,
      "son": 3998,
      "ru": 3999,
      "scop": 4000,
      "legg": 4001,
      "##ittee": 4002,
      "ban": 4003,
      "free": 4004,
      "##ativi": 4005,
      "gl": 4006,
      "dati": 4007,
      "disc": 4008,
      "sulle": 4009,
      "few": 4010,
      "design": 4011,
      "volte": 4012,
      "days": 4013,
      "perd": 4014,
      "2009": 4015,
      "funzion": 4016,
      "Ciao": 4017,
      "sog": 4018,
      "##cca": 4019,
      "requ": 4020,
      "colle": 4021,
      "Ver": 4022,
      "Gr": 4023,
      "hard": 4024,
      "business": 4025,
      "##AL": 4026,
      "forma": 4027,
      "##osed": 4028,
      "fig": 4029,
      "atta": 4030,
      "problem": 4031,
      "Cl": 4032,
      "ton": 4033,
      "called": 4034,
      "##ding": 4035,
      "ty": 4036,
      "Era": 4037,
      "##ets": 4038,
      "##isti": 4039,
      "##ware": 4040,
      "possible": 4041,
      "##vate": 4042,
      "##une": 4043,
      "ing": 4044,
      "fon": 4045,
      "##uale": 4046,
      "colleg": 4047,
      "Pi": 4048,
      "2008": 4049,
      "avuto": 4050,
      "measures": 4051,
      "##hes": 4052,
      "ciò": 4053,
      "##ining": 4054,
      "##my": 4055,
      "ricer": 4056,
      "coming": 4057,
      "uc": 4058,
      "soldi": 4059,
      "cop": 4060,
      "##member": 4061,
      "##ido": 4062,
      "Amer": 4063,
      "prepar": 4064,
      "Voglio": 4065,
      "Ital": 4066,
      "came": 4067,
      "197": 4068,
      "human": 4069,
      "rice": 4070,
      "stay": 4071,
      "##enda": 4072,
      "next": 4073,
      "##remmo": 4074,
      "Forse": 4075,
      "DE": 4076,
      "..": 4077,
      "Sai": 4078,
      "govern": 4079,
      "citta": 4080,
      "giorni": 4081,
      "##ward": 4082,
      "fel": 4083,
      "result": 4084,
      "risult": 4085,
      "adesso": 4086,
      "##rare": 4087,
      "##vail": 4088,
      "bit": 4089,
      "sapere": 4090,
      "siano": 4091,
      "farlo": 4092,
      "sui": 4093,
      "##str": 4094,
      "Ah": 4095,
      "alleg": 4096,
      "Man": 4097,
      "proc": 4098,
      "potrebbe": 4099,
      "move": 4100,
      "##umento": 4101,
      "pap": 4102,
      "madre": 4103,
      "uh": 4104,
      "##entro": 4105,
      "##ciamo": 4106,
      "working": 4107,
      "##ump": 4108,
      "John": 4109,
      "##//": 4110,
      "2010": 4111,
      "Mon": 4112,
      "##eter": 4113,
      "Uh": 4114,
      "preo": 4115,
      "sus": 4116,
      "whole": 4117,
      "leave": 4118,
      "##ew": 4119,
      "##tta": 4120,
      "##air": 4121,
      "##ately": 4122,
      "allow": 4123,
      "region": 4124,
      "dri": 4125,
      "##alf": 4126,
      "quanti": 4127,
      "nego": 4128,
      "##moc": 4129,
      "Bene": 4130,
      "##ener": 4131,
      "##rebbero": 4132,
      "Tra": 4133,
      "certo": 4134,
      "prob": 4135,
      "modific": 4136,
      "cod": 4137,
      "##fr": 4138,
      "Ecco": 4139,
      "dato": 4140,
      "camp": 4141,
      "##ling": 4142,
      "##alth": 4143,
      "##vir": 4144,
      "nostri": 4145,
      "##ume": 4146,
      "##ordin": 4147,
      "40": 4148,
      "identi": 4149,
      "Av": 4150,
      "discuss": 4151,
      "preoccup": 4152,
      "With": 4153,
      "##sure": 4154,
      "Pri": 4155,
      "Tr": 4156,
      "piano": 4157,
      "rius": 4158,
      "liber": 4159,
      "enough": 4160,
      "settore": 4161,
      "national": 4162,
      "stop": 4163,
      "water": 4164,
      "famiglia": 4165,
      "##orso": 4166,
      "dead": 4167,
      "stup": 4168,
      "##mento": 4169,
      "##ffic": 4170,
      "policy": 4171,
      "##ala": 4172,
      "conseg": 4173,
      "htt": 4174,
      "techn": 4175,
      "interest": 4176,
      "##yl": 4177,
      "Intern": 4178,
      "##issione": 4179,
      "possiamo": 4180,
      "##ority": 4181,
      "during": 4182,
      "nessuno": 4183,
      "##cell": 4184,
      "appena": 4185,
      "cred": 4186,
      "##vamente": 4187,
      "##ittà": 4188,
      "##ng": 4189,
      "devono": 4190,
      "http": 4191,
      "Dav": 4192,
      "looking": 4193,
      "German": 4194,
      "legis": 4195,
      "##zed": 4196,
      "##ubb": 4197,
      "##alk": 4198,
      "##vamo": 4199,
      "Sig": 4200,
      "ill": 4201,
      "sw": 4202,
      "##eremo": 4203,
      "allo": 4204,
      "period": 4205,
      "happened": 4206,
      "aiut": 4207,
      "##ules": 4208,
      "##remo": 4209,
      "://": 4210,
      "##asso": 4211,
      "someone": 4212,
      "mentre": 4213,
      "Please": 4214,
      "Ben": 4215,
      "deal": 4216,
      "ore": 4217,
      "porta": 4218,
      "Some": 4219,
      "##uff": 4220,
      "ero": 4221,
      "Min": 4222,
      "defini": 4223,
      "Lei": 4224,
      "controllo": 4225,
      "##anze": 4226,
      "Anne": 4227,
      "else": 4228,
      "2003": 4229,
      "##com": 4230,
      "impres": 4231,
      "interna": 4232,
      "conto": 4233,
      "##siasi": 4234,
      "##cei": 4235,
      "##bietti": 4236,
      "esempio": 4237,
      "beg": 4238,
      "sett": 4239,
      "sho": 4240,
      "trying": 4241,
      "##ministr": 4242,
      "comunit": 4243,
      "periodo": 4244,
      "ur": 4245,
      "##ense": 4246,
      "##app": 4247,
      "##ruct": 4248,
      "air": 4249,
      "sue": 4250,
      "enti": 4251,
      "##gono": 4252,
      "rispetto": 4253,
      "Rom": 4254,
      "gente": 4255,
      "maggi": 4256,
      "adop": 4257,
      "Ri": 4258,
      "paese": 4259,
      "confer": 4260,
      "consum": 4261,
      "ragione": 4262,
      "account": 4263,
      "taken": 4264,
      "power": 4265,
      "Ste": 4266,
      "##cchio": 4267,
      "forse": 4268,
      "##lice": 4269,
      "facendo": 4270,
      "Ind": 4271,
      "problemi": 4272,
      "disposi": 4273,
      "Directive": 4274,
      "Lu": 4275,
      "cio": 4276,
      "##ash": 4277,
      "until": 4278,
      "##imi": 4279,
      "importa": 4280,
      "view": 4281,
      "##rid": 4282,
      "Anche": 4283,
      "##fici": 4284,
      "wrong": 4285,
      "##idi": 4286,
      "##utes": 4287,
      "erano": 4288,
      "determin": 4289,
      "conta": 4290,
      "2011": 4291,
      "introd": 4292,
      "prendere": 4293,
      "misure": 4294,
      "Maybe": 4295,
      "##eld": 4296,
      "##ltre": 4297,
      "alcuni": 4298,
      "having": 4299,
      "fis": 4300,
      "One": 4301,
      "pron": 4302,
      "##ously": 4303,
      "talking": 4304,
      "grazie": 4305,
      "million": 4306,
      "seri": 4307,
      "##mit": 4308,
      "spa": 4309,
      "##cept": 4310,
      "THE": 4311,
      "città": 4312,
      "maggio": 4313,
      "macch": 4314,
      "condizioni": 4315,
      "interess": 4316,
      "cho": 4317,
      "##uth": 4318,
      "##und": 4319,
      "die": 4320,
      "##ender": 4321,
      "##loy": 4322,
      "school": 4323,
      "mind": 4324,
      "##not": 4325,
      "##ither": 4326,
      "nas": 4327,
      "##ww": 4328,
      "centr": 4329,
      "inten": 4330,
      "assist": 4331,
      "development": 4332,
      "##elle": 4333,
      "##lob": 4334,
      "fai": 4335,
      "went": 4336,
      "sk": 4337,
      "##ilan": 4338,
      "getting": 4339,
      "2000": 4340,
      "persona": 4341,
      "##itti": 4342,
      "change": 4343,
      "raggi": 4344,
      "esc": 4345,
      "viol": 4346,
      "Every": 4347,
      "Pr": 4348,
      "##isco": 4349,
      "Ave": 4350,
      "father": 4351,
      "letter": 4352,
      "job": 4353,
      "storia": 4354,
      "##arla": 4355,
      "sir": 4356,
      "##erra": 4357,
      "presid": 4358,
      "compe": 4359,
      "impro": 4360,
      "control": 4361,
      "less": 4362,
      "social": 4363,
      "whe": 4364,
      "avail": 4365,
      "mand": 4366,
      "least": 4367,
      "##bre": 4368,
      "milioni": 4369,
      "economic": 4370,
      "servizi": 4371,
      "stessa": 4372,
      "visit": 4373,
      "Char": 4374,
      "able": 4375,
      "aiuto": 4376,
      "corre": 4377,
      "Ca": 4378,
      "obietti": 4379,
      "##ks": 4380,
      "took": 4381,
      "Because": 4382,
      "diffic": 4383,
      "trovato": 4384,
      "##aby": 4385,
      "www": 4386,
      "cu": 4387,
      "den": 4388,
      "matter": 4389,
      "##viron": 4390,
      "cin": 4391,
      "cris": 4392,
      "rifer": 4393,
      "Siamo": 4394,
      "individ": 4395,
      "##orre": 4396,
      "##pped": 4397,
      "read": 4398,
      "##ars": 4399,
      "Fe": 4400,
      "negli": 4401,
      "molti": 4402,
      "cres": 4403,
      "##ua": 4404,
      "bring": 4405,
      "vers": 4406,
      "App": 4407,
      "##AS": 4408,
      "Here": 4409,
      "dobbiamo": 4410,
      "hope": 4411,
      "fall": 4412,
      "rad": 4413,
      "Pot": 4414,
      "##teri": 4415,
      "##eta": 4416,
      "verso": 4417,
      "opportun": 4418,
      "situazione": 4419,
      "##ude": 4420,
      "ov": 4421,
      "##med": 4422,
      "##orning": 4423,
      "##lu": 4424,
      "tur": 4425,
      "durante": 4426,
      "##ased": 4427,
      "bud": 4428,
      "hold": 4429,
      "sicuro": 4430,
      "##tig": 4431,
      "scel": 4432,
      "vista": 4433,
      "figlio": 4434,
      "medic": 4435,
      "previs": 4436,
      "##aving": 4437,
      "dovrebbe": 4438,
      "##ada": 4439,
      "##antas": 4440,
      "immag": 4441,
      "##ched": 4442,
      "autorità": 4443,
      "remember": 4444,
      "Committee": 4445,
      "heart": 4446,
      "Pe": 4447,
      "##ensa": 4448,
      "date": 4449,
      "##tore": 4450,
      "##ismo": 4451,
      "therefore": 4452,
      "Right": 4453,
      "##ugh": 4454,
      "##rist": 4455,
      "wi": 4456,
      "qualsiasi": 4457,
      "signific": 4458,
      "ries": 4459,
      "common": 4460,
      "small": 4461,
      "tali": 4462,
      "##atte": 4463,
      "##outh": 4464,
      "inno": 4465,
      "##unto": 4466,
      "produc": 4467,
      "sopra": 4468,
      "exc": 4469,
      "rap": 4470,
      "yet": 4471,
      "##ames": 4472,
      "light": 4473,
      "##urity": 4474,
      "doc": 4475,
      "plan": 4476,
      "cazzo": 4477,
      "##inazione": 4478,
      "serve": 4479,
      "necessary": 4480,
      "Acc": 4481,
      "##ised": 4482,
      "interno": 4483,
      "cambi": 4484,
      "otten": 4485,
      "##rato": 4486,
      "Devo": 4487,
      "ago": 4488,
      "##son": 4489,
      "preso": 4490,
      "Annex": 4491,
      "2012": 4492,
      "Decis": 4493,
      "effetti": 4494,
      "##vare": 4495,
      "cat": 4496,
      "##atica": 4497,
      "istitu": 4498,
      "diritto": 4499,
      "##eder": 4500,
      "pat": 4501,
      "sent": 4502,
      "##vece": 4503,
      "fond": 4504,
      "hotel": 4505,
      "contra": 4506,
      "studi": 4507,
      "2001": 4508,
      "saw": 4509,
      "film": 4510,
      "##here": 4511,
      "nulla": 4512,
      "squ": 4513,
      "mother": 4514,
      "##ences": 4515,
      "contain": 4516,
      "##ciato": 4517,
      "trovare": 4518,
      "cannot": 4519,
      "2002": 4520,
      "Scus": 4521,
      "##ppi": 4522,
      "##of": 4523,
      "ec": 4524,
      "devi": 4525,
      "##inato": 4526,
      "##ossi": 4527,
      "seen": 4528,
      "Will": 4529,
      "vin": 4530,
      "once": 4531,
      "##vironment": 4532,
      "quelle": 4533,
      "##onos": 4534,
      "aper": 4535,
      "enter": 4536,
      "taking": 4537,
      "strateg": 4538,
      "##oglie": 4539,
      "garanti": 4540,
      "hell": 4541,
      "mano": 4542,
      "isn": 4543,
      "given": 4544,
      "pensi": 4545,
      "##chie": 4546,
      "financial": 4547,
      "doll": 4548,
      "vig": 4549,
      "impeg": 4550,
      "##dic": 4551,
      "##ample": 4552,
      "##ordi": 4553,
      "sensi": 4554,
      "accordance": 4555,
      "pross": 4556,
      "cult": 4557,
      "##ranno": 4558,
      "simp": 4559,
      "dro": 4560,
      "preced": 4561,
      "body": 4562,
      "partecip": 4563,
      "Rus": 4564,
      "rispos": 4565,
      "##anz": 4566,
      "risol": 4567,
      "GU": 4568,
      "quelli": 4569,
      "##ED": 4570,
      "opin": 4571,
      "##poni": 4572,
      "children": 4573,
      "avete": 4574,
      "organis": 4575,
      "##ieg": 4576,
      "territ": 4577,
      "boy": 4578,
      "Asp": 4579,
      "sape": 4580,
      "including": 4581,
      "food": 4582,
      "dentro": 4583,
      "Col": 4584,
      "##ciare": 4585,
      "##ley": 4586,
      "miglior": 4587,
      "conten": 4588,
      "donna": 4589,
      "ricerca": 4590,
      "build": 4591,
      "Nor": 4592,
      "notte": 4593,
      "IN": 4594,
      "##cks": 4595,
      "procedure": 4596,
      "complet": 4597,
      "acqua": 4598,
      "cover": 4599,
      "mesi": 4600,
      "These": 4601,
      "##arm": 4602,
      "services": 4603,
      "##itori": 4604,
      "##ENT": 4605,
      "recei": 4606,
      "atti": 4607,
      "conclus": 4608,
      "necessario": 4609,
      "eas": 4610,
      "##iso": 4611,
      "##verso": 4612,
      "Ke": 4613,
      "dare": 4614,
      "net": 4615,
      "interv": 4616,
      "veri": 4617,
      "Ra": 4618,
      "##chia": 4619,
      "##ential": 4620,
      "provided": 4621,
      "giusto": 4622,
      "Certo": 4623,
      "##ama": 4624,
      "allegato": 4625,
      "making": 4626,
      "tran": 4627,
      "signore": 4628,
      "capito": 4629,
      "wasn": 4630,
      "bambini": 4631,
      "##orse": 4632,
      "diritti": 4633,
      "circa": 4634,
      "##ison": 4635,
      "Nessun": 4636,
      "##ably": 4637,
      "ir": 4638,
      "nuova": 4639,
      "event": 4640,
      "tratta": 4641,
      "circ": 4642,
      "##isf": 4643,
      "dep": 4644,
      "yeah": 4645,
      "questione": 4646,
      "pazi": 4647,
      "ring": 4648,
      "perc": 4649,
      "months": 4650,
      "Las": 4651,
      "2013": 4652,
      "actually": 4653,
      "##itor": 4654,
      "Har": 4655,
      "Ge": 4656,
      "im": 4657,
      "dovuto": 4658,
      "four": 4659,
      "##gu": 4660,
      "ragazzi": 4661,
      "##orities": 4662,
      "##ruzione": 4663,
      "entra": 4664,
      "evid": 4665,
      "appropri": 4666,
      "assic": 4667,
      "democ": 4668,
      "1999": 4669,
      "try": 4670,
      "provis": 4671,
      "usci": 4672,
      "##ood": 4673,
      "osp": 4674,
      "available": 4675,
      "proposta": 4676,
      "##ucking": 4677,
      "full": 4678,
      "Of": 4679,
      "##allo": 4680,
      "terra": 4681,
      "##inking": 4682,
      "##umenti": 4683,
      "foto": 4684,
      "##dies": 4685,
      "stare": 4686,
      "generale": 4687,
      "profession": 4688,
      "later": 4689,
      "##segn": 4690,
      "future": 4691,
      "dichi": 4692,
      "responsi": 4693,
      "##sw": 4694,
      "##lev": 4695,
      "##ffer": 4696,
      "##ances": 4697,
      "ucc": 4698,
      "uomini": 4699,
      "pen": 4700,
      "riguarda": 4701,
      "custo": 4702,
      "##aster": 4703,
      "luogo": 4704,
      "bag": 4705,
      "##ending": 4706,
      "special": 4707,
      "occhi": 4708,
      "pote": 4709,
      "chang": 4710,
      "yourself": 4711,
      "oltre": 4712,
      "sele": 4713,
      "CEE": 4714,
      "domanda": 4715,
      "##usi": 4716,
      "produzione": 4717,
      "prefer": 4718,
      "onorevole": 4719,
      "rin": 4720,
      "See": 4721,
      "Ins": 4722,
      "##ges": 4723,
      "treat": 4724,
      "##atr": 4725,
      "invol": 4726,
      "Med": 4727,
      "aid": 4728,
      "pati": 4729,
      "##tin": 4730,
      "##sh": 4731,
      "applicazione": 4732,
      "##voli": 4733,
      "require": 4734,
      "conte": 4735,
      "##odd": 4736,
      "bea": 4737,
      "quest": 4738,
      "letto": 4739,
      "##alle": 4740,
      "35": 4741,
      "sf": 4742,
      "##uh": 4743,
      "sy": 4744,
      "semplice": 4745,
      "Dobbiamo": 4746,
      "##entare": 4747,
      "Gre": 4748,
      "faccia": 4749,
      "##avolo": 4750,
      "conditions": 4751,
      "city": 4752,
      "EEC": 4753,
      "Credo": 4754,
      "OJ": 4755,
      "##uring": 4756,
      "curr": 4757,
      "##OL": 4758,
      "heard": 4759,
      "yes": 4760,
      "Any": 4761,
      "deli": 4762,
      "needs": 4763,
      "puo": 4764,
      "credi": 4765,
      "friends": 4766,
      "##etter": 4767,
      "##vazione": 4768,
      "##ror": 4769,
      "Res": 4770,
      "obb": 4771,
      "##otta": 4772,
      "##earch": 4773,
      "giorn": 4774,
      "competi": 4775,
      "vostro": 4776,
      "maggior": 4777,
      "migliore": 4778,
      "Mad": 4779,
      "subito": 4780,
      "avrebbe": 4781,
      "causa": 4782,
      "cul": 4783,
      "nice": 4784,
      "Jan": 4785,
      "direct": 4786,
      "elett": 4787,
      "##rest": 4788,
      "Andiamo": 4789,
      "stre": 4790,
      "##ettu": 4791,
      "pubbl": 4792,
      "##br": 4793,
      "membro": 4794,
      "decision": 4795,
      "svol": 4796,
      "##ged": 4797,
      "##tazione": 4798,
      "2016": 4799,
      "disponi": 4800,
      "quad": 4801,
      "vend": 4802,
      "third": 4803,
      "##eth": 4804,
      "immedi": 4805,
      "maybe": 4806,
      "side": 4807,
      "cittad": 4808,
      "amici": 4809,
      "dic": 4810,
      "prego": 4811,
      "certi": 4812,
      "morning": 4813,
      "##uni": 4814,
      "inde": 4815,
      "##van": 4816,
      "##orrow": 4817,
      "company": 4818,
      "##icazione": 4819,
      "grado": 4820,
      "cell": 4821,
      "##zze": 4822,
      "gre": 4823,
      "Alla": 4824,
      "2015": 4825,
      "occas": 4826,
      "##IONE": 4827,
      "##erlo": 4828,
      "Signore": 4829,
      "##PE": 4830,
      "##tici": 4831,
      "women": 4832,
      "woman": 4833,
      "materia": 4834,
      "##entazione": 4835,
      "##pr": 4836,
      "wind": 4837,
      "om": 4838,
      "baby": 4839,
      "##ages": 4840,
      "capac": 4841,
      "knew": 4842,
      "riusci": 4843,
      "##tty": 4844,
      "dam": 4845,
      "times": 4846,
      "Sor": 4847,
      "##ury": 4848,
      "Jack": 4849,
      "testa": 4850,
      "tom": 4851,
      "cause": 4852,
      "referred": 4853,
      "ang": 4854,
      "ascol": 4855,
      "ragazzo": 4856,
      "##ambi": 4857,
      "donne": 4858,
      "##ritto": 4859,
      "##erm": 4860,
      "saying": 4861,
      "tuoi": 4862,
      "production": 4863,
      "apri": 4864,
      "ecc": 4865,
      "##leep": 4866,
      "access": 4867,
      "service": 4868,
      "bilan": 4869,
      "sentito": 4870,
      "legisl": 4871,
      "fight": 4872,
      "##tail": 4873,
      "vir": 4874,
      "##opo": 4875,
      "32": 4876,
      "experi": 4877,
      "##urre": 4878,
      "break": 4879,
      "ragazza": 4880,
      "seguito": 4881,
      "##by": 4882,
      "div": 4883,
      "soon": 4884,
      "##unt": 4885,
      "colla": 4886,
      "quo": 4887,
      "situation": 4888,
      "class": 4889,
      "fantas": 4890,
      "stabili": 4891,
      "società": 4892,
      "pubblic": 4893,
      "Hi": 4894,
      "book": 4895,
      "##oto": 4896,
      "frate": 4897,
      "posizione": 4898,
      "morte": 4899,
      "environment": 4900,
      "##thers": 4901,
      "servizio": 4902,
      "complete": 4903,
      "uso": 4904,
      "temper": 4905,
      "invece": 4906,
      "decid": 4907,
      "##dio": 4908,
      "%)": 4909,
      "Treat": 4910,
      "##ows": 4911,
      "Posso": 4912,
      "fiss": 4913,
      "US": 4914,
      "penso": 4915,
      "rules": 4916,
      "Mer": 4917,
      "reali": 4918,
      "corso": 4919,
      "stor": 4920,
      "##ists": 4921,
      "qualità": 4922,
      "===": 4923,
      "tas": 4924,
      "##gio": 4925,
      "##ism": 4926,
      "vide": 4927,
      "rights": 4928,
      "Mrs": 4929,
      "bed": 4930,
      "land": 4931,
      "##ctions": 4932,
      "hours": 4933,
      "##arn": 4934,
      "Stai": 4935,
      "##light": 4936,
      "grow": 4937,
      "##ensione": 4938,
      "sì": 4939,
      "implement": 4940,
      "##angu": 4941,
      "quasi": 4942,
      "health": 4943,
      "press": 4944,
      "integr": 4945,
      "##omin": 4946,
      "UE": 4947,
      "##side": 4948,
      "reason": 4949,
      "cercando": 4950,
      "almeno": 4951,
      "sex": 4952,
      "caus": 4953,
      "avevo": 4954,
      "##itto": 4955,
      "riconos": 4956,
      "san": 4957,
      "##sta": 4958,
      "mg": 4959,
      "prodotto": 4960,
      "Vuoi": 4961,
      "fid": 4962,
      "ling": 4963,
      "##ring": 4964,
      "##gno": 4965,
      "##uter": 4966,
      "dol": 4967,
      "glob": 4968,
      "##ka": 4969,
      "record": 4970,
      "true": 4971,
      "##pris": 4972,
      "##ats": 4973,
      "##urale": 4974,
      "##ology": 4975,
      "mul": 4976,
      "ricord": 4977,
      "sed": 4978,
      "Tutto": 4979,
      "death": 4980,
      "diven": 4981,
      "political": 4982,
      "associ": 4983,
      "##uly": 4984,
      "##tics": 4985,
      "Ser": 4986,
      "appart": 4987,
      "sl": 4988,
      "compr": 4989,
      "United": 4990,
      "possa": 4991,
      "##este": 4992,
      "lungo": 4993,
      "sound": 4994,
      "##erito": 4995,
      "rappresent": 4996,
      "inst": 4997,
      "initi": 4998,
      "progetto": 4999,
      "resid": 5000,
      "Dr": 5001,
      "##jo": 5002,
      "##isto": 5003,
      "Gra": 5004,
      "##xim": 5005,
      "issu": 5006,
      "##lor": 5007,
      "respect": 5008,
      "Imp": 5009,
      "international": 5010,
      "young": 5011,
      "check": 5012,
      "##ela": 5013,
      "strada": 5014,
      "hist": 5015,
      "##ET": 5016,
      "##fication": 5017,
      "01": 5018,
      "EUR": 5019,
      "example": 5020,
      "##pond": 5021,
      "fore": 5022,
      "wife": 5023,
      "infer": 5024,
      "tito": 5025,
      "Pol": 5026,
      "fuck": 5027,
      "##tri": 5028,
      "rema": 5029,
      "product": 5030,
      "fran": 5031,
      "fucking": 5032,
      "post": 5033,
      "San": 5034,
      "giov": 5035,
      "processo": 5036,
      "institu": 5037,
      "faci": 5038,
      "fire": 5039,
      "##estion": 5040,
      "##selves": 5041,
      "ultimo": 5042,
      "##amin": 5043,
      "ensure": 5044,
      "Gia": 5045,
      "uffici": 5046,
      "makes": 5047,
      "settimana": 5048,
      "AN": 5049,
      "forn": 5050,
      "minuti": 5051,
      "ester": 5052,
      "killed": 5053,
      "moglie": 5054,
      "become": 5055,
      "Fa": 5056,
      "emer": 5057,
      "minutes": 5058,
      "guess": 5059,
      "Treaty": 5060,
      "prac": 5061,
      "town": 5062,
      "##ilo": 5063,
      "insta": 5064,
      "based": 5065,
      "telef": 5066,
      "senso": 5067,
      "##lex": 5068,
      "position": 5069,
      "hur": 5070,
      "##orti": 5071,
      "autori": 5072,
      "Temp": 5073,
      "##ert": 5074,
      "perf": 5075,
      "##astanza": 5076,
      "pensa": 5077,
      "##enn": 5078,
      "diffici": 5079,
      "Senti": 5080,
      "lic": 5081,
      "dog": 5082,
      "grandi": 5083,
      "sud": 5084,
      "wouldn": 5085,
      "##care": 5086,
      "blood": 5087,
      "##iscono": 5088,
      "RE": 5089,
      "##vati": 5090,
      "fort": 5091,
      "##asta": 5092,
      "close": 5093,
      "##agement": 5094,
      "##ches": 5095,
      "##iono": 5096,
      "##otte": 5097,
      "listen": 5098,
      "signora": 5099,
      "##llare": 5100,
      "ultima": 5101,
      "piacere": 5102,
      "##lan": 5103,
      "maj": 5104,
      "five": 5105,
      "##uf": 5106,
      "##uli": 5107,
      "pare": 5108,
      "ready": 5109,
      "##ratt": 5110,
      "scar": 5111,
      "Gener": 5112,
      "##ouble": 5113,
      "team": 5114,
      "vogli": 5115,
      "##atamente": 5116,
      "single": 5117,
      "stanno": 5118,
      "capit": 5119,
      "termine": 5120,
      "sbagli": 5121,
      "gas": 5122,
      "##unic": 5123,
      "force": 5124,
      "addition": 5125,
      "cuore": 5126,
      "Dopo": 5127,
      "alone": 5128,
      "diversi": 5129,
      "security": 5130,
      "##ues": 5131,
      "myself": 5132,
      "possibilità": 5133,
      "siete": 5134,
      "docu": 5135,
      "##AC": 5136,
      "##aco": 5137,
      "##ros": 5138,
      "venire": 5139,
      "Tom": 5140,
      "figli": 5141,
      "Decision": 5142,
      "##wards": 5143,
      "answ": 5144,
      "##vention": 5145,
      "33": 5146,
      "industri": 5147,
      "##idd": 5148,
      "cut": 5149,
      "##osto": 5150,
      "return": 5151,
      "Bel": 5152,
      "June": 5153,
      "Mol": 5154,
      "##pt": 5155,
      "morto": 5156,
      "velo": 5157,
      "convin": 5158,
      "faccio": 5159,
      "##iter": 5160,
      "##attro": 5161,
      "poter": 5162,
      "##__": 5163,
      "precis": 5164,
      "amm": 5165,
      "Sw": 5166,
      "##mes": 5167,
      "##lusi": 5168,
      "##partment": 5169,
      "pretty": 5170,
      "##utiful": 5171,
      "anal": 5172,
      "After": 5173,
      "Sam": 5174,
      "##rete": 5175,
      "divent": 5176,
      "ext": 5177,
      "says": 5178,
      "Spe": 5179,
      "##agna": 5180,
      "##elli": 5181,
      "##zzato": 5182,
      "dimost": 5183,
      "ba": 5184,
      "Christ": 5185,
      "medi": 5186,
      "However": 5187,
      "##ince": 5188,
      "##rog": 5189,
      "happy": 5190,
      "##ugno": 5191,
      "obje": 5192,
      "sette": 5193,
      "Sar": 5194,
      "basis": 5195,
      "amore": 5196,
      "unico": 5197,
      "Wait": 5198,
      "application": 5199,
      "##ceed": 5200,
      "##uce": 5201,
      "##ublic": 5202,
      "60": 5203,
      "trova": 5204,
      "saranno": 5205,
      "concerned": 5206,
      "energy": 5207,
      "Apri": 5208,
      "OK": 5209,
      "ge": 5210,
      "exact": 5211,
      "##fect": 5212,
      "watch": 5213,
      "party": 5214,
      "writ": 5215,
      "##ream": 5216,
      "attraverso": 5217,
      "##issimo": 5218,
      "known": 5219,
      "Our": 5220,
      "stran": 5221,
      "buona": 5222,
      "inoltre": 5223,
      "##orts": 5224,
      "abo": 5225,
      "perform": 5226,
      "campo": 5227,
      "mamma": 5228,
      "distrib": 5229,
      "Pap": 5230,
      "##where": 5231,
      "action": 5232,
      "proper": 5233,
      "esist": 5234,
      "polizia": 5235,
      "##??": 5236,
      "crit": 5237,
      "anyone": 5238,
      "##ki": 5239,
      "budget": 5240,
      "equ": 5241,
      "##nal": 5242,
      "##forme": 5243,
      "##una": 5244,
      "guid": 5245,
      "ogg": 5246,
      "\"?": 5247,
      "effettu": 5248,
      "further": 5249,
      "using": 5250,
      "passato": 5251,
      "speak": 5252,
      "##ula": 5253,
      "OF": 5254,
      "Comp": 5255,
      "abbastanza": 5256,
      "coin": 5257,
      "Solo": 5258,
      "##ettare": 5259,
      "sper": 5260,
      "gone": 5261,
      "##ured": 5262,
      "authorities": 5263,
      "macchina": 5264,
      "45": 5265,
      "otto": 5266,
      "amount": 5267,
      "Ph": 5268,
      "##fy": 5269,
      "neg": 5270,
      "destin": 5271,
      "##anche": 5272,
      "##ffe": 5273,
      "saf": 5274,
      "camb": 5275,
      "##ef": 5276,
      "bella": 5277,
      "2014": 5278,
      "bal": 5279,
      "commerci": 5280,
      "Tutti": 5281,
      "top": 5282,
      "tax": 5283,
      "90": 5284,
      "Tur": 5285,
      "Have": 5286,
      "eli": 5287,
      "##imenti": 5288,
      "sugg": 5289,
      "ambi": 5290,
      "purpos": 5291,
      "disposizioni": 5292,
      "##cember": 5293,
      "fix": 5294,
      "Secon": 5295,
      "centro": 5296,
      "##anzi": 5297,
      "05": 5298,
      "bir": 5299,
      "drink": 5300,
      "##more": 5301,
      "forte": 5302,
      "quality": 5303,
      "##ney": 5304,
      "##sue": 5305,
      "compres": 5306,
      "trattato": 5307,
      "Sorry": 5308,
      "dem": 5309,
      "vostra": 5310,
      "rif": 5311,
      "sociale": 5312,
      "##enere": 5313,
      "December": 5314,
      "azi": 5315,
      "wish": 5316,
      "##ressed": 5317,
      "scu": 5318,
      "transport": 5319,
      "##asc": 5320,
      "proposal": 5321,
      "valore": 5322,
      "##amm": 5323,
      "commer": 5324,
      "Er": 5325,
      "Fir": 5326,
      "##ogra": 5327,
      "farm": 5328,
      "whether": 5329,
      "half": 5330,
      "##erti": 5331,
      "capo": 5332,
      "succede": 5333,
      "governo": 5334,
      "win": 5335,
      "shit": 5336,
      "paragraph": 5337,
      "separ": 5338,
      "dad": 5339,
      "walk": 5340,
      "##alo": 5341,
      "##ING": 5342,
      "agg": 5343,
      "wants": 5344,
      "Ric": 5345,
      "relations": 5346,
      "##estione": 5347,
      "80": 5348,
      "El": 5349,
      "sera": 5350,
      "##ources": 5351,
      "##cti": 5352,
      "entro": 5353,
      "effici": 5354,
      "Aust": 5355,
      "lost": 5356,
      "wanna": 5357,
      "##tivities": 5358,
      "adott": 5359,
      "research": 5360,
      "##utare": 5361,
      "dici": 5362,
      "ori": 5363,
      "soft": 5364,
      "din": 5365,
      "dif": 5366,
      "detail": 5367,
      "exist": 5368,
      "##mmeno": 5369,
      "provide": 5370,
      "##UT": 5371,
      "##onia": 5372,
      "##atever": 5373,
      "above": 5374,
      "##ray": 5375,
      "##tiene": 5376,
      "soltanto": 5377,
      "controll": 5378,
      "hands": 5379,
      "##tional": 5380,
      "giugno": 5381,
      "comin": 5382,
      "giusti": 5383,
      "type": 5384,
      "total": 5385,
      "beautiful": 5386,
      "vorrei": 5387,
      "protection": 5388,
      "##cing": 5389,
      "relative": 5390,
      "##ttamente": 5391,
      "significa": 5392,
      "past": 5393,
      "##II": 5394,
      "chiesto": 5395,
      "forni": 5396,
      "spos": 5397,
      "eh": 5398,
      "represent": 5399,
      "Pensa": 5400,
      "##ested": 5401,
      "apply": 5402,
      "Like": 5403,
      "wel": 5404,
      "request": 5405,
      "##org": 5406,
      "adv": 5407,
      "##AM": 5408,
      "prova": 5409,
      "sara": 5410,
      "ambito": 5411,
      "##aced": 5412,
      "poco": 5413,
      "trade": 5414,
      "subject": 5415,
      "Post": 5416,
      "gave": 5417,
      "##egu": 5418,
      "inizio": 5419,
      "achie": 5420,
      "accomp": 5421,
      "##chè": 5422,
      "price": 5423,
      "meeting": 5424,
      "coordin": 5425,
      "risk": 5426,
      "Des": 5427,
      "##ressi": 5428,
      "Sembra": 5429,
      "His": 5430,
      "Lui": 5431,
      "##atico": 5432,
      "34": 5433,
      "moment": 5434,
      "bilancio": 5435,
      "villa": 5436,
      "af": 5437,
      "hy": 5438,
      "areas": 5439,
      "ril": 5440,
      "##ughter": 5441,
      "video": 5442,
      "Mal": 5443,
      "general": 5444,
      "##urg": 5445,
      "abs": 5446,
      "meth": 5447,
      "Internet": 5448,
      "either": 5449,
      "bello": 5450,
      "value": 5451,
      "##retta": 5452,
      "difficile": 5453,
      "eng": 5454,
      "##pl": 5455,
      "##ciuto": 5456,
      "##bri": 5457,
      "consegu": 5458,
      "activities": 5459,
      "everyone": 5460,
      "programme": 5461,
      "futuro": 5462,
      "word": 5463,
      "From": 5464,
      "##pping": 5465,
      "##eranno": 5466,
      "##ha": 5467,
      "##uttura": 5468,
      "##cially": 5469,
      "cla": 5470,
      "##ficazione": 5471,
      "Ab": 5472,
      "pan": 5473,
      "unica": 5474,
      "York": 5475,
      "peric": 5476,
      "dose": 5477,
      "dicembre": 5478,
      "Lord": 5479,
      "dor": 5480,
      "wonder": 5481,
      "##fficio": 5482,
      "Je": 5483,
      "cro": 5484,
      "problems": 5485,
      "media": 5486,
      "Dad": 5487,
      "##rattutto": 5488,
      "confron": 5489,
      "Sm": 5490,
      "Sun": 5491,
      "##zzare": 5492,
      "vicino": 5493,
      "Port": 5494,
      "##entale": 5495,
      "costitu": 5496,
      "DI": 5497,
      "##resso": 5498,
      "America": 5499,
      "lung": 5500,
      "##zation": 5501,
      "thinking": 5502,
      "nostre": 5503,
      "Her": 5504,
      "azione": 5505,
      "genere": 5506,
      "##utazione": 5507,
      "conne": 5508,
      "alcune": 5509,
      "##au": 5510,
      "##osso": 5511,
      "amp": 5512,
      "scri": 5513,
      "##ologia": 5514,
      "phone": 5515,
      "computer": 5516,
      "comes": 5517,
      "Que": 5518,
      "##ony": 5519,
      "##semb": 5520,
      "giro": 5521,
      "stiamo": 5522,
      "agreement": 5523,
      "scuola": 5524,
      "##yn": 5525,
      "guerra": 5526,
      "Ter": 5527,
      "hon": 5528,
      "avrei": 5529,
      "local": 5530,
      "categ": 5531,
      "mant": 5532,
      "##ishing": 5533,
      "vengono": 5534,
      "swe": 5535,
      "##vegli": 5536,
      "##ission": 5537,
      "paura": 5538,
      "Ce": 5539,
      "door": 5540,
      "according": 5541,
      "##tiz": 5542,
      "##sia": 5543,
      "strong": 5544,
      "bambino": 5545,
      "mari": 5546,
      "##room": 5547,
      "##asti": 5548,
      "mem": 5549,
      "##urs": 5550,
      "succed": 5551,
      "dichiar": 5552,
      "36": 5553,
      "##sc": 5554,
      "Bl": 5555,
      "soli": 5556,
      "##azz": 5557,
      "short": 5558,
      "196": 5559,
      "##bour": 5560,
      "##UN": 5561,
      "##yes": 5562,
      "frequ": 5563,
      "##loyment": 5564,
      "sleep": 5565,
      "probably": 5566,
      "game": 5567,
      "##lin": 5568,
      "suffici": 5569,
      "gotta": 5570,
      "Sch": 5571,
      "mur": 5572,
      "##angue": 5573,
      "04": 5574,
      "Hello": 5575,
      "Take": 5576,
      "pure": 5577,
      "forza": 5578,
      "commissione": 5579,
      "corpo": 5580,
      "##cto": 5581,
      "quattro": 5582,
      "##pol": 5583,
      "haven": 5584,
      "cittadini": 5585,
      "##rew": 5586,
      "edi": 5587,
      "##omb": 5588,
      "##rire": 5589,
      "ferm": 5590,
      "ucciso": 5591,
      "##ghi": 5592,
      "spar": 5593,
      "appre": 5594,
      "imprese": 5595,
      "##cle": 5596,
      "mang": 5597,
      "elect": 5598,
      "dagli": 5599,
      "COMM": 5600,
      "Chris": 5601,
      "appropriate": 5602,
      "Fi": 5603,
      "fanno": 5604,
      "##rimon": 5605,
      "Cour": 5606,
      "##isci": 5607,
      "alb": 5608,
      "##abilità": 5609,
      "studio": 5610,
      "internazionale": 5611,
      "King": 5612,
      "successi": 5613,
      "andato": 5614,
      "##entemente": 5615,
      "note": 5616,
      "Inter": 5617,
      "gestione": 5618,
      "##vata": 5619,
      "late": 5620,
      "ambiente": 5621,
      "scienti": 5622,
      "Wor": 5623,
      "regist": 5624,
      "quadro": 5625,
      "quite": 5626,
      "Aspetta": 5627,
      "##oddisf": 5628,
      "legal": 5629,
      "piccolo": 5630,
      "tornare": 5631,
      "imb": 5632,
      "government": 5633,
      "facil": 5634,
      "##vern": 5635,
      "pace": 5636,
      "sac": 5637,
      "begin": 5638,
      "##ammi": 5639,
      "mov": 5640,
      "##entle": 5641,
      "issue": 5642,
      "along": 5643,
      "##uty": 5644,
      "comunque": 5645,
      "nuovi": 5646,
      "incid": 5647,
      "share": 5648,
      "motivo": 5649,
      "large": 5650,
      "flo": 5651,
      "Tro": 5652,
      "trattamento": 5653,
      "##ots": 5654,
      "sola": 5655,
      "tonight": 5656,
      "##uali": 5657,
      "##ania": 5658,
      "guar": 5659,
      "limit": 5660,
      "promo": 5661,
      "brother": 5662,
      "##vic": 5663,
      "##orio": 5664,
      "living": 5665,
      "progetti": 5666,
      "richiesta": 5667,
      "members": 5668,
      "cinque": 5669,
      "Thanks": 5670,
      "lettera": 5671,
      "asked": 5672,
      "office": 5673,
      "Niente": 5674,
      "Was": 5675,
      "##timento": 5676,
      "tomorrow": 5677,
      "cand": 5678,
      "##uary": 5679,
      "dollari": 5680,
      "tour": 5681,
      "ricev": 5682,
      "answer": 5683,
      "prove": 5684,
      "##....": 5685,
      "pubblica": 5686,
      "ordine": 5687,
      "bank": 5688,
      "vac": 5689,
      "Ass": 5690,
      "inside": 5691,
      "easy": 5692,
      "stuff": 5693,
      "nazionale": 5694,
      "Ai": 5695,
      "adopted": 5696,
      "tradi": 5697,
      "##zing": 5698,
      "##head": 5699,
      "##ands": 5700,
      "##uardo": 5701,
      "Penso": 5702,
      "Sti": 5703,
      "##anger": 5704,
      "started": 5705,
      "dar": 5706,
      "pal": 5707,
      "##ones": 5708,
      "trasfer": 5709,
      "##ATO": 5710,
      "Cal": 5711,
      "##uso": 5712,
      "##ides": 5713,
      "06": 5714,
      "sel": 5715,
      "prezzi": 5716,
      "chia": 5717,
      "France": 5718,
      "buon": 5719,
      "invest": 5720,
      "UN": 5721,
      "##IL": 5722,
      "though": 5723,
      "Italia": 5724,
      "Tell": 5725,
      "esperi": 5726,
      "sito": 5727,
      "pensato": 5728,
      "Eng": 5729,
      "attenzione": 5730,
      "Vorrei": 5731,
      "popol": 5732,
      "Itali": 5733,
      "couldn": 5734,
      "age": 5735,
      "##cul": 5736,
      "mezzo": 5737,
      "##urch": 5738,
      "##cati": 5739,
      "##oura": 5740,
      "Ang": 5741,
      "investig": 5742,
      "sangue": 5743,
      "nonché": 5744,
      "##ories": 5745,
      "parole": 5746,
      "##ucle": 5747,
      "Frank": 5748,
      "tardi": 5749,
      "risultati": 5750,
      "exactly": 5751,
      "##ners": 5752,
      "detta": 5753,
      "energia": 5754,
      "Mag": 5755,
      "Vo": 5756,
      "lì": 5757,
      "##orted": 5758,
      "##ciate": 5759,
      "truth": 5760,
      "particip": 5761,
      "provisions": 5762,
      "near": 5763,
      "By": 5764,
      "Val": 5765,
      "messo": 5766,
      "six": 5767,
      "fratello": 5768,
      "List": 5769,
      "field": 5770,
      "cooperation": 5771,
      "mese": 5772,
      "misura": 5773,
      "Mc": 5774,
      "aiuti": 5775,
      "##right": 5776,
      "seconda": 5777,
      "ist": 5778,
      "##ungere": 5779,
      "Dan": 5780,
      "Inoltre": 5781,
      "soddisf": 5782,
      "##erò": 5783,
      "##attere": 5784,
      "pazienti": 5785,
      "Bri": 5786,
      "Quello": 5787,
      "##olid": 5788,
      "##porto": 5789,
      "adegu": 5790,
      "personale": 5791,
      "deci": 5792,
      "##aps": 5793,
      "chance": 5794,
      "words": 5795,
      "success": 5796,
      "others": 5797,
      "##ccato": 5798,
      "police": 5799,
      "numer": 5800,
      "ps": 5801,
      "Devi": 5802,
      "clos": 5803,
      "brought": 5804,
      "resta": 5805,
      "soprattutto": 5806,
      "cooperazione": 5807,
      "serious": 5808,
      "cr": 5809,
      "perfect": 5810,
      "diverse": 5811,
      "som": 5812,
      "70": 5813,
      "presto": 5814,
      "influ": 5815,
      "Bi": 5816,
      "Tutta": 5817,
      "##ila": 5818,
      "arti": 5819,
      "famili": 5820,
      "andiamo": 5821,
      "sapp": 5822,
      "nazionali": 5823,
      "standard": 5824,
      "37": 5825,
      "##ler": 5826,
      "mention": 5827,
      "maggiore": 5828,
      "Nat": 5829,
      "##mbers": 5830,
      "resol": 5831,
      "industry": 5832,
      "38": 5833,
      "##ush": 5834,
      "ent": 5835,
      "knows": 5836,
      "##assa": 5837,
      "sche": 5838,
      "extra": 5839,
      "casi": 5840,
      "pubblico": 5841,
      "among": 5842,
      "##endi": 5843,
      "##asera": 5844,
      "experience": 5845,
      "##istiche": 5846,
      "nemmeno": 5847,
      "nuove": 5848,
      "card": 5849,
      "avanti": 5850,
      "parlato": 5851,
      "Camp": 5852,
      "private": 5853,
      "sil": 5854,
      "zona": 5855,
      "alto": 5856,
      "meto": 5857,
      "##cche": 5858,
      "amend": 5859,
      "peace": 5860,
      "Italy": 5861,
      "obblig": 5862,
      "TV": 5863,
      "struct": 5864,
      "##pes": 5865,
      "procedura": 5866,
      "##entic": 5867,
      "Vole": 5868,
      "##erve": 5869,
      "eserci": 5870,
      "uman": 5871,
      "Bro": 5872,
      "dan": 5873,
      "potuto": 5874,
      "##rane": 5875,
      "09": 5876,
      "##OT": 5877,
      "##trem": 5878,
      "##pre": 5879,
      "##fia": 5880,
      "affron": 5881,
      "risposta": 5882,
      "Guarda": 5883,
      "##RE": 5884,
      "caratter": 5885,
      "riferimento": 5886,
      "##orte": 5887,
      "outside": 5888,
      "ship": 5889,
      "?\"": 5890,
      "Jes": 5891,
      "##lling": 5892,
      "##ker": 5893,
      "##naio": 5894,
      "02": 5895,
      "##oul": 5896,
      "##omi": 5897,
      "protezione": 5898,
      "realizz": 5899,
      "fail": 5900,
      "##ension": 5901,
      "otti": 5902,
      "##sto": 5903,
      "lie": 5904,
      "nove": 5905,
      "molte": 5906,
      "works": 5907,
      "recomm": 5908,
      "serie": 5909,
      "January": 5910,
      "Dis": 5911,
      "ut": 5912,
      "##urali": 5913,
      "sit": 5914,
      "##lain": 5915,
      "natura": 5916,
      "quar": 5917,
      "domani": 5918,
      "portato": 5919,
      "legge": 5920,
      "jud": 5921,
      "##aking": 5922,
      "project": 5923,
      "parola": 5924,
      "Part": 5925,
      "cav": 5926,
      "”.": 5927,
      "rivol": 5928,
      "##jects": 5929,
      "garantire": 5930,
      "##IV": 5931,
      "##itting": 5932,
      "supposed": 5933,
      "clean": 5934,
      "increase": 5935,
      "link": 5936,
      "prezzo": 5937,
      "##iché": 5938,
      "##abilmente": 5939,
      "tw": 5940,
      "##ouch": 5941,
      "preved": 5942,
      "quei": 5943,
      "et": 5944,
      "39": 5945,
      "deri": 5946,
      "##lio": 5947,
      "rischio": 5948,
      "luce": 5949,
      "linea": 5950,
      "remo": 5951,
      "cad": 5952,
      "low": 5953,
      "coup": 5954,
      "##ald": 5955,
      "schi": 5956,
      "##ogl": 5957,
      "riun": 5958,
      "aspetta": 5959,
      "ucci": 5960,
      "né": 5961,
      "##itari": 5962,
      "learn": 5963,
      "March": 5964,
      "Qui": 5965,
      "ep": 5966,
      "eyes": 5967,
      "mach": 5968,
      "##venzione": 5969,
      "gioco": 5970,
      "cra": 5971,
      "music": 5972,
      "##view": 5973,
      "##orazione": 5974,
      "include": 5975,
      "opinion": 5976,
      "text": 5977,
      "obiettivo": 5978,
      "raff": 5979,
      "personal": 5980,
      "log": 5981,
      "##ST": 5982,
      "terri": 5983,
      "educ": 5984,
      "03": 5985,
      "##cked": 5986,
      "relativa": 5987,
      "punti": 5988,
      "chiamato": 5989,
      "Cas": 5990,
      "rem": 5991,
      "Wind": 5992,
      "hos": 5993,
      "##band": 5994,
      "management": 5995,
      "commit": 5996,
      "charac": 5997,
      "##table": 5998,
      "subst": 5999,
      "dial": 6000,
      "sector": 6001,
      "emerg": 6002,
      "ama": 6003,
      "EURO": 6004,
      "Pl": 6005,
      "story": 6006,
      "##tice": 6007,
      "##arch": 6008,
      "concentr": 6009,
      "tagli": 6010,
      "##atory": 6011,
      "god": 6012,
      "tesoro": 6013,
      "Isra": 6014,
      "DLL": 6015,
      "Op": 6016,
      "eat": 6017,
      "almost": 6018,
      "July": 6019,
      "however": 6020,
      "Octo": 6021,
      "figlia": 6022,
      "pie": 6023,
      "sever": 6024,
      "felice": 6025,
      "Prima": 6026,
      "##erebbe": 6027,
      "spir": 6028,
      "aw": 6029,
      "aspett": 6030,
      "treatment": 6031,
      "summ": 6032,
      "Nove": 6033,
      "scelta": 6034,
      "communic": 6035,
      "realtà": 6036,
      "gun": 6037,
      "recog": 6038,
      "animali": 6039,
      ".,": 6040,
      "langu": 6041,
      "##ught": 6042,
      "kids": 6043,
      "AD": 6044,
      "##tito": 6045,
      "##ressione": 6046,
      "software": 6047,
      "ple": 6048,
      "pack": 6049,
      "##pres": 6050,
      "citiz": 6051,
      "October": 6052,
      "##anco": 6053,
      "Sep": 6054,
      "gentle": 6055,
      "Vieni": 6056,
      "##enz": 6057,
      "arm": 6058,
      "front": 6059,
      "patients": 6060,
      "##ael": 6061,
      "requirements": 6062,
      "General": 6063,
      "safety": 6064,
      "nucle": 6065,
      "diavolo": 6066,
      "##pero": 6067,
      "murder": 6068,
      "pick": 6069,
      "vai": 6070,
      "##fu": 6071,
      "##ics": 6072,
      "dele": 6073,
      "spesso": 6074,
      "finito": 6075,
      "Americ": 6076,
      "terms": 6077,
      "uscire": 6078,
      "Jesus": 6079,
      "##ava": 6080,
      "##tag": 6081,
      "Temper": 6082,
      "House": 6083,
      "fres": 6084,
      "rate": 6085,
      "benef": 6086,
      "news": 6087,
      "Um": 6088,
      "entrare": 6089,
      "huh": 6090,
      "##lar": 6091,
      "accesso": 6092,
      "Uniti": 6093,
      "Bra": 6094,
      "enc": 6095,
      "##vision": 6096,
      "Tran": 6097,
      "##eric": 6098,
      "capire": 6099,
      "entire": 6100,
      "worry": 6101,
      "##razy": 6102,
      "superiore": 6103,
      "mori": 6104,
      "##pecially": 6105,
      "compl": 6106,
      "defin": 6107,
      "intell": 6108,
      "Em": 6109,
      "##key": 6110,
      "longer": 6111,
      "##colo": 6112,
      "500": 6113,
      "mic": 6114,
      "mas": 6115,
      "vor": 6116,
      "conform": 6117,
      "##ziare": 6118,
      "norme": 6119,
      "mettere": 6120,
      "trasporto": 6121,
      "muo": 6122,
      "tor": 6123,
      "andata": 6124,
      "administr": 6125,
      "Court": 6126,
      "fatta": 6127,
      "##reg": 6128,
      "Puoi": 6129,
      "##ficato": 6130,
      "riguardo": 6131,
      "Mich": 6132,
      "behind": 6133,
      "qua": 6134,
      "fondament": 6135,
      "obs": 6136,
      "Miss": 6137,
      "hus": 6138,
      "colpa": 6139,
      "April": 6140,
      "rom": 6141,
      "rub": 6142,
      "minute": 6143,
      "##ators": 6144,
      "cias": 6145,
      "consul": 6146,
      "conclud": 6147,
      "basta": 6148,
      "##atorio": 6149,
      "Noi": 6150,
      "rifi": 6151,
      "First": 6152,
      "Having": 6153,
      "doctor": 6154,
      "##--": 6155,
      "dico": 6156,
      "##tember": 6157,
      "colp": 6158,
      "##tivity": 6159,
      "CON": 6160,
      "##OU": 6161,
      "##oud": 6162,
      "costi": 6163,
      "trasm": 6164,
      "hit": 6165,
      "##ppe": 6166,
      "resto": 6167,
      "tar": 6168,
      "##cover": 6169,
      "bell": 6170,
      "specie": 6171,
      "civi": 6172,
      "##attina": 6173,
      "totale": 6174,
      "##ape": 6175,
      "safe": 6176,
      "75": 6177,
      "interesse": 6178,
      "##IA": 6179,
      "##minist": 6180,
      "##visione": 6181,
      "lavorare": 6182,
      "ground": 6183,
      "##cting": 6184,
      "key": 6185,
      "##pro": 6186,
      "##orge": 6187,
      "reac": 6188,
      "lives": 6189,
      "firm": 6190,
      "inn": 6191,
      "##lied": 6192,
      "##ression": 6193,
      "economica": 6194,
      "lasciato": 6195,
      "pensare": 6196,
      "],": 6197,
      "vedo": 6198,
      "##aring": 6199,
      "died": 6200,
      "##bon": 6201,
      "site": 6202,
      "goes": 6203,
      "Agree": 6204,
      "quick": 6205,
      "current": 6206,
      "95": 6207,
      "##usta": 6208,
      "road": 6209,
      "looks": 6210,
      "##dom": 6211,
      "Tuttavia": 6212,
      "method": 6213,
      "##grat": 6214,
      "elen": 6215,
      "nello": 6216,
      "spieg": 6217,
      "speed": 6218,
      "##times": 6219,
      "##isi": 6220,
      "univers": 6221,
      "network": 6222,
      "insegn": 6223,
      "Dai": 6224,
      "assol": 6225,
      "camera": 6226,
      "vivere": 6227,
      "PR": 6228,
      "##20": 6229,
      "##BAR": 6230,
      "perso": 6231,
      "##ubblica": 6232,
      "arg": 6233,
      "partner": 6234,
      "sentire": 6235,
      "Jim": 6236,
      "More": 6237,
      "Wow": 6238,
      "##sequ": 6239,
      "training": 6240,
      "thanks": 6241,
      "##em": 6242,
      "descri": 6243,
      "##ermi": 6244,
      "monitor": 6245,
      "indietro": 6246,
      "building": 6247,
      "Listen": 6248,
      "Adesso": 6249,
      "luck": 6250,
      "guarante": 6251,
      "Tre": 6252,
      "##den": 6253,
      "daughter": 6254,
      "##aces": 6255,
      "concerning": 6256,
      "enjo": 6257,
      "terror": 6258,
      "##rench": 6259,
      "prep": 6260,
      "needed": 6261,
      "gennaio": 6262,
      "##ail": 6263,
      "##yle": 6264,
      "piccola": 6265,
      "##ery": 6266,
      "Hotel": 6267,
      "1998": 6268,
      "Commissario": 6269,
      "desc": 6270,
      "photo": 6271,
      "dimentic": 6272,
      "democr": 6273,
      "affari": 6274,
      "aim": 6275,
      "venuto": 6276,
      "Ris": 6277,
      "teach": 6278,
      "soste": 6279,
      "volevo": 6280,
      "facile": 6281,
      "reli": 6282,
      "pover": 6283,
      "##rug": 6284,
      "secret": 6285,
      "##anca": 6286,
      "##hic": 6287,
      "effect": 6288,
      "propria": 6289,
      "address": 6290,
      "results": 6291,
      "trust": 6292,
      "difficult": 6293,
      "##ull": 6294,
      "##ule": 6295,
      "##anies": 6296,
      "rather": 6297,
      "giuri": 6298,
      "incontr": 6299,
      "##BAR_": 6300,
      "Nothing": 6301,
      "agricult": 6302,
      "marito": 6303,
      "##ctives": 6304,
      "AC": 6305,
      "cuc": 6306,
      "##ically": 6307,
      "risorse": 6308,
      "husband": 6309,
      "appear": 6310,
      "incor": 6311,
      "cases": 6312,
      "formazione": 6313,
      "elementi": 6314,
      "frame": 6315,
      "responsa": 6316,
      "luglio": 6317,
      "parla": 6318,
      "##viamo": 6319,
      "Paul": 6320,
      "##frica": 6321,
      "##ufact": 6322,
      "pm": 6323,
      "##ture": 6324,
      "però": 6325,
      "registr": 6326,
      "takes": 6327,
      "continue": 6328,
      "testim": 6329,
      "Ascol": 6330,
      "upon": 6331,
      "##oub": 6332,
      "##atives": 6333,
      "EUROPE": 6334,
      "##gione": 6335,
      "ufficio": 6336,
      "##asing": 6337,
      "##andon": 6338,
      "classi": 6339,
      "III": 6340,
      "altern": 6341,
      "vediamo": 6342,
      "Hel": 6343,
      "crazy": 6344,
      "contact": 6345,
      "vigore": 6346,
      "ottobre": 6347,
      "Signora": 6348,
      "sense": 6349,
      "depos": 6350,
      "ruolo": 6351,
      "Italian": 6352,
      "_BAR_": 6353,
      "sat": 6354,
      "seems": 6355,
      "fronte": 6356,
      "sostegno": 6357,
      "Cris": 6358,
      "costr": 6359,
      "costs": 6360,
      "hig": 6361,
      "##ological": 6362,
      "debate": 6363,
      "equip": 6364,
      "):": 6365,
      "Ges": 6366,
      "shot": 6367,
      "natural": 6368,
      "azioni": 6369,
      "har": 6370,
      "send": 6371,
      "neanche": 6372,
      "##ulations": 6373,
      "September": 6374,
      "valutazione": 6375,
      "history": 6376,
      "##arono": 6377,
      "##orsa": 6378,
      "points": 6379,
      "sov": 6380,
      "required": 6381,
      "Peter": 6382,
      "prop": 6383,
      "importanza": 6384,
      "pesca": 6385,
      "bri": 6386,
      "##atici": 6387,
      "##adra": 6388,
      "##uced": 6389,
      "marzo": 6390,
      "nature": 6391,
      "emend": 6392,
      "##bit": 6393,
      "##gh": 6394,
      "programmi": 6395,
      "rapporto": 6396,
      "dicendo": 6397,
      "conosc": 6398,
      "systems": 6399,
      "Agreement": 6400,
      "vitti": 6401,
      "compon": 6402,
      "presso": 6403,
      "gets": 6404,
      "considered": 6405,
      "Cam": 6406,
      "##iri": 6407,
      "##erva": 6408,
      "Nessuno": 6409,
      "capacità": 6410,
      "##ming": 6411,
      "fini": 6412,
      "##ked": 6413,
      "##ball": 6414,
      "presidente": 6415,
      "Sim": 6416,
      "valori": 6417,
      "Group": 6418,
      "document": 6419,
      "Mart": 6420,
      "vesti": 6421,
      "invi": 6422,
      "often": 6423,
      "assess": 6424,
      "Joe": 6425,
      "##ATION": 6426,
      "Republic": 6427,
      "impossi": 6428,
      "buy": 6429,
      "aere": 6430,
      "sore": 6431,
      "##amed": 6432,
      "affe": 6433,
      "esperienza": 6434,
      "##ko": 6435,
      "##ID": 6436,
      "##bby": 6437,
      "various": 6438,
      "sce": 6439,
      "regime": 6440,
      "facciamo": 6441,
      "informazione": 6442,
      "Possi": 6443,
      "cross": 6444,
      "piedi": 6445,
      "fossi": 6446,
      "hot": 6447,
      "##ode": 6448,
      "French": 6449,
      "##arvi": 6450,
      "partire": 6451,
      "DELL": 6452,
      "48": 6453,
      "##AZ": 6454,
      "consid": 6455,
      "respons": 6456,
      "LA": 6457,
      "himself": 6458,
      "Poi": 6459,
      "radio": 6460,
      "Ber": 6461,
      "dream": 6462,
      "svilupp": 6463,
      "dietro": 6464,
      "scher": 6465,
      "mare": 6466,
      "franc": 6467,
      "dedic": 6468,
      "questions": 6469,
      "Give": 6470,
      "effective": 6471,
      "Russia": 6472,
      "41": 6473,
      "lont": 6474,
      "usare": 6475,
      "Commissioner": 6476,
      "segre": 6477,
      "sosp": 6478,
      "Fo": 6479,
      "##ption": 6480,
      ");": 6481,
      "Bill": 6482,
      "##bly": 6483,
      "##ality": 6484,
      "exper": 6485,
      "##ISS": 6486,
      "draw": 6487,
      "occasione": 6488,
      "##nie": 6489,
      "##arli": 6490,
      "towards": 6491,
      "step": 6492,
      "pari": 6493,
      "sacco": 6494,
      "##uttosto": 6495,
      "##rimonio": 6496,
      "##ilar": 6497,
      "Mio": 6498,
      "##rò": 6499,
      "manag": 6500,
      "early": 6501,
      "settimane": 6502,
      "hurt": 6503,
      "##lled": 6504,
      "sistemi": 6505,
      "Stop": 6506,
      "Ogni": 6507,
      "kg": 6508,
      "cele": 6509,
      "weeks": 6510,
      "involved": 6511,
      "08": 6512,
      "stanza": 6513,
      "expect": 6514,
      "technical": 6515,
      "mine": 6516,
      "merito": 6517,
      "##enziale": 6518,
      "citizens": 6519,
      "companies": 6520,
      "direttamente": 6521,
      "vehic": 6522,
      "ottenere": 6523,
      "bast": 6524,
      "##alisi": 6525,
      "ieri": 6526,
      "mail": 6527,
      "Exc": 6528,
      "Mil": 6529,
      "##rore": 6530,
      "prem": 6531,
      "prim": 6532,
      "several": 6533,
      "42": 6534,
      "Uno": 6535,
      "##CE": 6536,
      "convers": 6537,
      "seguenti": 6538,
      "clin": 6539,
      "particularly": 6540,
      "sento": 6541,
      "##IO": 6542,
      "reach": 6543,
      "stabil": 6544,
      "code": 6545,
      "92": 6546,
      "foot": 6547,
      "##acy": 6548,
      "##attamente": 6549,
      "voce": 6550,
      "rappres": 6551,
      "veramente": 6552,
      "##raid": 6553,
      "##igr": 6554,
      "96": 6555,
      "Pal": 6556,
      "##diale": 6557,
      "relev": 6558,
      "vote": 6559,
      "contemp": 6560,
      "issues": 6561,
      "potere": 6562,
      "soluzione": 6563,
      "raccom": 6564,
      "improve": 6565,
      "candid": 6566,
      "Act": 6567,
      "sess": 6568,
      "sister": 6569,
      "itself": 6570,
      "norma": 6571,
      "black": 6572,
      "tram": 6573,
      "##ggia": 6574,
      "##ficare": 6575,
      "itali": 6576,
      "metter": 6577,
      "multi": 6578,
      "settembre": 6579,
      "forward": 6580,
      "manif": 6581,
      "Alex": 6582,
      "##utamente": 6583,
      "manc": 6584,
      "held": 6585,
      "Michael": 6586,
      "especially": 6587,
      "##astro": 6588,
      "established": 6589,
      "43": 6590,
      "mente": 6591,
      "##haps": 6592,
      "##bert": 6593,
      "centrale": 6594,
      "couple": 6595,
      "Lond": 6596,
      "aria": 6597,
      "role": 6598,
      "##though": 6599,
      "David": 6600,
      "##osta": 6601,
      "##ilt": 6602,
      "85": 6603,
      "##asto": 6604,
      "exe": 6605,
      "##ustice": 6606,
      "91": 6607,
      "##SE": 6608,
      "related": 6609,
      "domande": 6610,
      "resources": 6611,
      "Davvero": 6612,
      "laid": 6613,
      "##owers": 6614,
      "parlando": 6615,
      "estate": 6616,
      "testo": 6617,
      "ST": 6618,
      "parere": 6619,
      "##veni": 6620,
      "nut": 6621,
      "reas": 6622,
      "##agine": 6623,
      "publ": 6624,
      "46": 6625,
      "##ests": 6626,
      "goods": 6627,
      "1996": 6628,
      "Nella": 6629,
      "ultimi": 6630,
      "Pensavo": 6631,
      "Ac": 6632,
      "industria": 6633,
      "aer": 6634,
      "cura": 6635,
      "pertanto": 6636,
      "Così": 6637,
      "November": 6638,
      "vot": 6639,
      "##aga": 6640,
      "Off": 6641,
      "ball": 6642,
      "##now": 6643,
      "##ccio": 6644,
      "portare": 6645,
      "waiting": 6646,
      "danger": 6647,
      "##fico": 6648,
      "##isation": 6649,
      "const": 6650,
      "importanti": 6651,
      "##atrice": 6652,
      "IS": 6653,
      "##AP": 6654,
      "##ache": 6655,
      "scon": 6656,
      "tempor": 6657,
      "tuttavia": 6658,
      "Minister": 6659,
      "proto": 6660,
      "stamp": 6661,
      "sold": 6662,
      "der": 6663,
      "stri": 6664,
      "deciso": 6665,
      "##ict": 6666,
      "bill": 6667,
      "strutt": 6668,
      "mandato": 6669,
      "##isted": 6670,
      "Repubblica": 6671,
      "carry": 6672,
      "##fa": 6673,
      "##anna": 6674,
      "Even": 6675,
      "resist": 6676,
      "Hen": 6677,
      "tue": 6678,
      "##ficio": 6679,
      "carried": 6680,
      "PC": 6681,
      "mm": 6682,
      "messaggio": 6683,
      "obiettivi": 6684,
      "major": 6685,
      "fast": 6686,
      "pain": 6687,
      "afraid": 6688,
      "vado": 6689,
      "welcome": 6690,
      "##rano": 6691,
      "online": 6692,
      "comport": 6693,
      "Sec": 6694,
      "spazio": 6695,
      "riesco": 6696,
      "implementation": 6697,
      "Would": 6698,
      "pros": 6699,
      "oggetto": 6700,
      "impar": 6701,
      "establish": 6702,
      "instru": 6703,
      "cool": 6704,
      "Africa": 6705,
      "fatti": 6706,
      "##du": 6707,
      "choice": 6708,
      "World": 6709,
      "##bbra": 6710,
      "##glia": 6711,
      "streng": 6712,
      "moder": 6713,
      "##10": 6714,
      "fair": 6715,
      "grat": 6716,
      "subs": 6717,
      "chiama": 6718,
      "attention": 6719,
      "##ME": 6720,
      "Inf": 6721,
      "##ppa": 6722,
      "amended": 6723,
      "intellig": 6724,
      "whatever": 6725,
      "stava": 6726,
      "events": 6727,
      "coinvol": 6728,
      "Nu": 6729,
      "##bbi": 6730,
      "##vious": 6731,
      "sea": 6732,
      "capisco": 6733,
      "autom": 6734,
      "crimin": 6735,
      "medicin": 6736,
      "Gio": 6737,
      "##erai": 6738,
      "corris": 6739,
      "##uoco": 6740,
      "segn": 6741,
      "located": 6742,
      "Cio": 6743,
      "rete": 6744,
      "Sare": 6745,
      "zone": 6746,
      "1997": 6747,
      "principale": 6748,
      "stessi": 6749,
      "web": 6750,
      "serio": 6751,
      "salute": 6752,
      "dig": 6753,
      "grand": 6754,
      "Sure": 6755,
      "ufficiale": 6756,
      "porto": 6757,
      "##ky": 6758,
      "effetto": 6759,
      "fund": 6760,
      "uccid": 6761,
      "##eso": 6762,
      "Excuse": 6763,
      "##tective": 6764,
      "piuttosto": 6765,
      "##itivo": 6766,
      "passare": 6767,
      "'!": 6768,
      "##lish": 6769,
      "##friend": 6770,
      "##utions": 6771,
      "##pected": 6772,
      "character": 6773,
      "Great": 6774,
      "##lazione": 6775,
      "drive": 6776,
      "44": 6777,
      "##inare": 6778,
      "plas": 6779,
      "telefono": 6780,
      "relationship": 6781,
      "lavori": 6782,
      "oil": 6783,
      "final": 6784,
      "regione": 6785,
      "termini": 6786,
      "##ximum": 6787,
      "300": 6788,
      "##igi": 6789,
      "negozi": 6790,
      "Feb": 6791,
      "Aff": 6792,
      "IT": 6793,
      "bor": 6794,
      "art": 6795,
      "politiche": 6796,
      "Vai": 6797,
      "protegg": 6798,
      "surpris": 6799,
      "Aug": 6800,
      "esec": 6801,
      "##tead": 6802,
      "telling": 6803,
      "author": 6804,
      "tried": 6805,
      "##isa": 6806,
      "ECU": 6807,
      "##icamente": 6808,
      "Posted": 6809,
      "sens": 6810,
      "europee": 6811,
      "desid": 6812,
      "##vio": 6813,
      "vecchio": 6814,
      "fell": 6815,
      "club": 6816,
      "indiri": 6817,
      "threat": 6818,
      "responsible": 6819,
      "##die": 6820,
      "».": 6821,
      "##gy": 6822,
      "Scusa": 6823,
      "Hanno": 6824,
      "abit": 6825,
      "##abe": 6826,
      "gentlemen": 6827,
      "##ases": 6828,
      "create": 6829,
      "Does": 6830,
      "Bru": 6831,
      "##az": 6832,
      "divers": 6833,
      "divert": 6834,
      "ain": 6835,
      "##sti": 6836,
      "liqu": 6837,
      "giovani": 6838,
      "elimin": 6839,
      "stron": 6840,
      "posti": 6841,
      "##erson": 6842,
      "tend": 6843,
      "space": 6844,
      "creare": 6845,
      "necessità": 6846,
      "cercare": 6847,
      "##atiche": 6848,
      "esig": 6849,
      "proposte": 6850,
      "rilas": 6851,
      "Roma": 6852,
      "##itch": 6853,
      "table": 6854,
      "paid": 6855,
      "crede": 6856,
      "corr": 6857,
      "umani": 6858,
      "titolo": 6859,
      "##tato": 6860,
      "white": 6861,
      "comprom": 6862,
      "anymore": 6863,
      "institutions": 6864,
      "##icid": 6865,
      "##mitted": 6866,
      "relevant": 6867,
      "Dim": 6868,
      "drug": 6869,
      "discussione": 6870,
      "decided": 6871,
      "girls": 6872,
      "running": 6873,
      "negoti": 6874,
      "festa": 6875,
      "##pper": 6876,
      "##viously": 6877,
      "##posi": 6878,
      "##alizzazione": 6879,
      "emb": 6880,
      "andando": 6881,
      "labor": 6882,
      "forget": 6883,
      "stupid": 6884,
      "innov": 6885,
      "Secondo": 6886,
      "semb": 6887,
      "##zzata": 6888,
      "##fully": 6889,
      "coper": 6890,
      "##mine": 6891,
      "stasera": 6892,
      "scoper": 6893,
      "worth": 6894,
      "Germany": 6895,
      "assicura": 6896,
      "demon": 6897,
      "##olute": 6898,
      "manufact": 6899,
      "roba": 6900,
      "Corte": 6901,
      "Ven": 6902,
      "##arne": 6903,
      "thous": 6904,
      "##usione": 6905,
      "box": 6906,
      "paio": 6907,
      "accid": 6908,
      "gruppi": 6909,
      "effects": 6910,
      "figure": 6911,
      "colleghi": 6912,
      "SE": 6913,
      "mut": 6914,
      "sco": 6915,
      "##rugg": 6916,
      "accept": 6917,
      "assass": 6918,
      "speciale": 6919,
      "Mom": 6920,
      "##ented": 6921,
      "atte": 6922,
      "medico": 6923,
      "##ossa": 6924,
      "##iture": 6925,
      "American": 6926,
      "wall": 6927,
      "##tiva": 6928,
      "##acci": 6929,
      "terzo": 6930,
      "##viso": 6931,
      "inser": 6932,
      "perdere": 6933,
      "Allah": 6934,
      "dotto": 6935,
      "##cci": 6936,
      "##sive": 6937,
      "verità": 6938,
      "osserv": 6939,
      "07": 6940,
      "tent": 6941,
      "##cking": 6942,
      "massimo": 6943,
      "Af": 6944,
      "bio": 6945,
      "projects": 6946,
      "##range": 6947,
      "Due": 6948,
      "perman": 6949,
      "completamente": 6950,
      "enjoy": 6951,
      "Dal": 6952,
      "Univers": 6953,
      "claim": 6954,
      "framework": 6955,
      "55": 6956,
      "Gree": 6957,
      "##atures": 6958,
      "##esione": 6959,
      "hair": 6960,
      "uccider": 6961,
      "##arle": 6962,
      "themselves": 6963,
      "stia": 6964,
      "Sir": 6965,
      "crescita": 6966,
      "aumento": 6967,
      "davanti": 6968,
      "##ogliono": 6969,
      "passi": 6970,
      "Forza": 6971,
      "##mentare": 6972,
      "##the": 6973,
      "europei": 6974,
      "aspetto": 6975,
      "scopo": 6976,
      "capital": 6977,
      "reference": 6978,
      "shoot": 6979,
      "EN": 6980,
      "sole": 6981,
      "##oltà": 6982,
      "##edere": 6983,
      "1992": 6984,
      "approach": 6985,
      "Salve": 6986,
      "##ster": 6987,
      "##lies": 6988,
      ",\"": 6989,
      "artis": 6990,
      ".)": 6991,
      "lan": 6992,
      "benefici": 6993,
      "solid": 6994,
      "intorno": 6995,
      "giurid": 6996,
      "##uge": 6997,
      "staff": 6998,
      "##nes": 6999,
      "##ghe": 7000,
      "##gar": 7001,
      "##ondo": 7002,
      "##reed": 7003,
      "salv": 7004,
      "Cro": 7005,
      "##time": 7006,
      "impi": 7007,
      "offers": 7008,
      "relazioni": 7009,
      "97": 7010,
      "prices": 7011,
      "plann": 7012,
      "gesti": 7013,
      "vanta": 7014,
      "spl": 7015,
      "essa": 7016,
      "monet": 7017,
      "study": 7018,
      "giud": 7019,
      "Quanto": 7020,
      "veic": 7021,
      "urg": 7022,
      "##cchia": 7023,
      "##redi": 7024,
      "maximum": 7025,
      "fabb": 7026,
      "individual": 7027,
      "ringraz": 7028,
      "americ": 7029,
      "aspetti": 7030,
      "Other": 7031,
      "ela": 7032,
      "analisi": 7033,
      "##gin": 7034,
      "##change": 7035,
      "##ource": 7036,
      "applicable": 7037,
      "Two": 7038,
      "economico": 7039,
      "Cristo": 7040,
      "emo": 7041,
      "medio": 7042,
      "viaggio": 7043,
      "authority": 7044,
      "##rast": 7045,
      "consist": 7046,
      "1994": 7047,
      "concorr": 7048,
      "conforme": 7049,
      "##ago": 7050,
      "##void": 7051,
      "opera": 7052,
      "squadra": 7053,
      "Econom": 7054,
      "parli": 7055,
      "married": 7056,
      "underta": 7057,
      "favor": 7058,
      "scegli": 7059,
      "##ichi": 7060,
      "comunicazione": 7061,
      "positive": 7062,
      "novembre": 7063,
      "touch": 7064,
      "consult": 7065,
      "##ettato": 7066,
      "Govern": 7067,
      "migliori": 7068,
      "Francia": 7069,
      "Hol": 7070,
      "entrambi": 7071,
      "esper": 7072,
      "appar": 7073,
      "offre": 7074,
      "====": 7075,
      "varia": 7076,
      "sun": 7077,
      "Which": 7078,
      "Contro": 7079,
      "worked": 7080,
      "comunitario": 7081,
      "nessuna": 7082,
      "attuale": 7083,
      "fondi": 7084,
      "directly": 7085,
      "##!!": 7086,
      "consenti": 7087,
      "##ridge": 7088,
      "Charlie": 7089,
      "cru": 7090,
      "pom": 7091,
      "##mate": 7092,
      "spese": 7093,
      "function": 7094,
      "##tained": 7095,
      "libro": 7096,
      "message": 7097,
      "Questi": 7098,
      "##itary": 7099,
      "evidence": 7100,
      "diventare": 7101,
      "anch": 7102,
      "##istor": 7103,
      "greater": 7104,
      "George": 7105,
      "Dur": 7106,
      "und": 7107,
      "##ministrazione": 7108,
      "##ternal": 7109,
      "morire": 7110,
      "Mary": 7111,
      "Ray": 7112,
      "##ept": 7113,
      "1995": 7114,
      "oppure": 7115,
      "feeling": 7116,
      "attuazione": 7117,
      "47": 7118,
      "peso": 7119,
      "trouble": 7120,
      "transfer": 7121,
      "settori": 7122,
      "changes": 7123,
      "save": 7124,
      "##ledge": 7125,
      "lat": 7126,
      "dovrei": 7127,
      "##into": 7128,
      "International": 7129,
      "self": 7130,
      "Del": 7131,
      "fan": 7132,
      "hosp": 7133,
      "struttura": 7134,
      "grave": 7135,
      "infatti": 7136,
      "principio": 7137,
      "aprile": 7138,
      "##iddle": 7139,
      "##log": 7140,
      "##itz": 7141,
      "##olamento": 7142,
      "mista": 7143,
      "spia": 7144,
      "dovrebbero": 7145,
      "confir": 7146,
      "legislation": 7147,
      "temperature": 7148,
      "##unch": 7149,
      "##ortunity": 7150,
      "similar": 7151,
      "49": 7152,
      "Sol": 7153,
      "##ctors": 7154,
      "arch": 7155,
      "dovremmo": 7156,
      "malatti": 7157,
      "Gl": 7158,
      "##uzioni": 7159,
      "##istro": 7160,
      "presenza": 7161,
      "strumenti": 7162,
      "##anny": 7163,
      "##cent": 7164,
      "##ersi": 7165,
      "##enzia": 7166,
      "termin": 7167,
      "Qualcuno": 7168,
      "lab": 7169,
      "ap": 7170,
      "desider": 7171,
      "dormi": 7172,
      "trib": 7173,
      "scapp": 7174,
      "incredi": 7175,
      "destro": 7176,
      "relativo": 7177,
      "!\"": 7178,
      "opportunity": 7179,
      "riguard": 7180,
      "fondo": 7181,
      "completely": 7182,
      "esame": 7183,
      "depend": 7184,
      "esattamente": 7185,
      "scritto": 7186,
      "export": 7187,
      "offici": 7188,
      "pul": 7189,
      "passo": 7190,
      "alta": 7191,
      "##ays": 7192,
      "ragazze": 7193,
      "progress": 7194,
      "sogg": 7195,
      "Eli": 7196,
      "##verse": 7197,
      "chiaro": 7198,
      "locale": 7199,
      "Germania": 7200,
      "decide": 7201,
      "responsabilità": 7202,
      "##omen": 7203,
      "carte": 7204,
      "created": 7205,
      "protect": 7206,
      "territorio": 7207,
      "disponibili": 7208,
      "sede": 7209,
      "##vvi": 7210,
      "##IG": 7211,
      "giving": 7212,
      "93": 7213,
      "##cente": 7214,
      "195": 7215,
      "Mike": 7216,
      "volume": 7217,
      "##airs": 7218,
      "pronto": 7219,
      "range": 7220,
      "##yer": 7221,
      "breve": 7222,
      "##unk": 7223,
      "ones": 7224,
      "##urato": 7225,
      "##ops": 7226,
      "trasc": 7227,
      "purpose": 7228,
      "evol": 7229,
      "hate": 7230,
      "aiutare": 7231,
      "received": 7232,
      "Mamma": 7233,
      "##umb": 7234,
      "abbi": 7235,
      "fase": 7236,
      "##istic": 7237,
      "section": 7238,
      "##istan": 7239,
      "organizzazione": 7240,
      "riten": 7241,
      "groups": 7242,
      "enor": 7243,
      "raccol": 7244,
      "bagno": 7245,
      "wine": 7246,
      "##ral": 7247,
      "unità": 7248,
      "##uttori": 7249,
      "Molto": 7250,
      "coun": 7251,
      "fate": 7252,
      "##zie": 7253,
      "infrast": 7254,
      "essi": 7255,
      "aren": 7256,
      "birth": 7257,
      "ricevuto": 7258,
      "sappiamo": 7259,
      "IV": 7260,
      "South": 7261,
      "round": 7262,
      "ripar": 7263,
      "##tures": 7264,
      "carta": 7265,
      "##timenti": 7266,
      "significant": 7267,
      "ecco": 7268,
      "feed": 7269,
      "##cies": 7270,
      "nav": 7271,
      "Tim": 7272,
      "##avi": 7273,
      "##itness": 7274,
      "strano": 7275,
      "Imm": 7276,
      "Sat": 7277,
      "oro": 7278,
      "oblig": 7279,
      "alive": 7280,
      "levels": 7281,
      "##esco": 7282,
      "somebody": 7283,
      "minim": 7284,
      "gioc": 7285,
      "##IM": 7286,
      "whose": 7287,
      "regioni": 7288,
      "1993": 7289,
      "War": 7290,
      "aud": 7291,
      "smo": 7292,
      "##mos": 7293,
      "propor": 7294,
      "dieci": 7295,
      "risoluzione": 7296,
      "##bbraio": 7297,
      "##armente": 7298,
      "suffer": 7299,
      "People": 7300,
      "giustizia": 7301,
      "James": 7302,
      "##tazioni": 7303,
      "parties": 7304,
      "impegn": 7305,
      "sweet": 7306,
      "riman": 7307,
      "Only": 7308,
      "##tituito": 7309,
      "98": 7310,
      "veg": 7311,
      "Buon": 7312,
      "chiedere": 7313,
      "analys": 7314,
      "65": 7315,
      "##OP": 7316,
      "##ountain": 7317,
      "focus": 7318,
      "Since": 7319,
      "Wal": 7320,
      "##istica": 7321,
      "debb": 7322,
      "ladies": 7323,
      "weight": 7324,
      "avessi": 7325,
      "condition": 7326,
      "language": 7327,
      "infe": 7328,
      "deep": 7329,
      "parents": 7330,
      "finally": 7331,
      "active": 7332,
      "performance": 7333,
      "Guard": 7334,
      "atto": 7335,
      "partners": 7336,
      "libertà": 7337,
      "##tela": 7338,
      "##ruary": 7339,
      "##zzazioni": 7340,
      "micro": 7341,
      "Possiamo": 7342,
      "##tte": 7343,
      "##istics": 7344,
      "comitato": 7345,
      "errore": 7346,
      "hey": 7347,
      "paper": 7348,
      "Fu": 7349,
      "eye": 7350,
      "##unta": 7351,
      "diretto": 7352,
      "COMMISS": 7353,
      "là": 7354,
      "##ols": 7355,
      "poor": 7356,
      "Avete": 7357,
      "##ppure": 7358,
      "##estra": 7359,
      "Max": 7360,
      "locali": 7361,
      "dettagli": 7362,
      "resolution": 7363,
      "sorella": 7364,
      "87": 7365,
      "avoid": 7366,
      "##rica": 7367,
      "1990": 7368,
      "affin": 7369,
      "Cla": 7370,
      "leaving": 7371,
      "modalità": 7372,
      "Quella": 7373,
      "Fer": 7374,
      "err": 7375,
      "indipend": 7376,
      "esporta": 7377,
      "environmental": 7378,
      "Spero": 7379,
      "band": 7380,
      "ted": 7381,
      "mondiale": 7382,
      "Oggi": 7383,
      "Us": 7384,
      "sick": 7385,
      "asking": 7386,
      "farti": 7387,
      "solution": 7388,
      "##yd": 7389,
      "”,": 7390,
      "##vocato": 7391,
      "principali": 7392,
      "Sape": 7393,
      "normal": 7394,
      "esclusi": 7395,
      "semplicemente": 7396,
      "##ya": 7397,
      "##utta": 7398,
      "compar": 7399,
      "assum": 7400,
      "employment": 7401,
      "crisi": 7402,
      "##erie": 7403,
      "ulteri": 7404,
      "clienti": 7405,
      "pericol": 7406,
      "Mac": 7407,
      "review": 7408,
      "animals": 7409,
      "##iterrane": 7410,
      "##icare": 7411,
      "arres": 7412,
      "lotta": 7413,
      "establishing": 7414,
      "giornata": 7415,
      "floor": 7416,
      "conver": 7417,
      "##chen": 7418,
      "invit": 7419,
      "ahead": 7420,
      "mot": 7421,
      "costo": 7422,
      "everybody": 7423,
      "intervento": 7424,
      "February": 7425,
      "Lou": 7426,
      "Red": 7427,
      "fat": 7428,
      "travel": 7429,
      "fully": 7430,
      "evitare": 7431,
      "covered": 7432,
      "%.": 7433,
      "CH": 7434,
      "Ero": 7435,
      "##ills": 7436,
      "Fl": 7437,
      "bec": 7438,
      "##mai": 7439,
      "fede": 7440,
      "piani": 7441,
      "prison": 7442,
      "trad": 7443,
      "tenere": 7444,
      "vostri": 7445,
      "English": 7446,
      "amo": 7447,
      "##inta": 7448,
      "yours": 7449,
      "society": 7450,
      "conosce": 7451,
      "mangiare": 7452,
      "agricultural": 7453,
      "##RA": 7454,
      "##entre": 7455,
      "disposizione": 7456,
      "West": 7457,
      "##ability": 7458,
      "].": 7459,
      "##UL": 7460,
      "armi": 7461,
      "avesse": 7462,
      "associa": 7463,
      "deliver": 7464,
      "##ination": 7465,
      "terzi": 7466,
      "behalf": 7467,
      "beginning": 7468,
      "Ved": 7469,
      "lose": 7470,
      "##omma": 7471,
      "papa": 7472,
      "Henry": 7473,
      "burn": 7474,
      "bath": 7475,
      "Contin": 7476,
      "##lands": 7477,
      "libero": 7478,
      "AND": 7479,
      "##olf": 7480,
      "annun": 7481,
      "prossimo": 7482,
      "cry": 7483,
      "eri": 7484,
      "##mare": 7485,
      "soff": 7486,
      "effica": 7487,
      "animal": 7488,
      "lingua": 7489,
      "PRO": 7490,
      "page": 7491,
      "agente": 7492,
      "relativi": 7493,
      "modifica": 7494,
      "##ambe": 7495,
      "##ottor": 7496,
      "internet": 7497,
      "stavo": 7498,
      "coloro": 7499,
      "dise": 7500,
      "Altri": 7501,
      "genitori": 7502,
      "##ostante": 7503,
      "tempi": 7504,
      "##razia": 7505,
      "conosci": 7506,
      "freed": 7507,
      "##struction": 7508,
      "collabor": 7509,
      "sort": 7510,
      "##cl": 7511,
      "ricordo": 7512,
      "occupazione": 7513,
      "seguente": 7514,
      "##ising": 7515,
      "TO": 7516,
      "##pective": 7517,
      "rispond": 7518,
      "seem": 7519,
      "##moni": 7520,
      "osped": 7521,
      "##gere": 7522,
      "material": 7523,
      "sapevo": 7524,
      "Bank": 7525,
      "Cle": 7526,
      "YOU": 7527,
      "fuoco": 7528,
      "##LE": 7529,
      "##tezza": 7530,
      "esiste": 7531,
      "compagn": 7532,
      "attimo": 7533,
      "commercio": 7534,
      "orient": 7535,
      "recogni": 7536,
      "accep": 7537,
      "documenti": 7538,
      "dump": 7539,
      "genti": 7540,
      "##icazioni": 7541,
      "eventi": 7542,
      "lasciare": 7543,
      "included": 7544,
      "Social": 7545,
      "Regno": 7546,
      "REG": 7547,
      "Ni": 7548,
      "apartment": 7549,
      "procedures": 7550,
      "confid": 7551,
      "impresa": 7552,
      "simple": 7553,
      "growth": 7554,
      "voglia": 7555,
      "##irito": 7556,
      "##NA": 7557,
      "abil": 7558,
      "ingl": 7559,
      "dark": 7560,
      "##ournal": 7561,
      "intende": 7562,
      "pursu": 7563,
      "origine": 7564,
      "tecnolog": 7565,
      "impegno": 7566,
      "veloce": 7567,
      "Pu": 7568,
      "foss": 7569,
      "spre": 7570,
      "Str": 7571,
      "##ensioni": 7572,
      "across": 7573,
      "operation": 7574,
      "distur": 7575,
      "##ception": 7576,
      "emiss": 7577,
      "cielo": 7578,
      "credere": 7579,
      "##icidio": 7580,
      "##nia": 7581,
      "rischi": 7582,
      "operazioni": 7583,
      "internal": 7584,
      "88": 7585,
      "Ir": 7586,
      "bur": 7587,
      "##issima": 7588,
      "amministr": 7589,
      "livelli": 7590,
      "Trans": 7591,
      "clic": 7592,
      "adj": 7593,
      "compens": 7594,
      "ricordi": 7595,
      "playing": 7596,
      "guarda": 7597,
      "Papa": 7598,
      "Sil": 7599,
      "voleva": 7600,
      "fatt": 7601,
      "morta": 7602,
      "vogliono": 7603,
      "##orz": 7604,
      "##pects": 7605,
      "arrivare": 7606,
      "measure": 7607,
      "54": 7608,
      "##borazione": 7609,
      "waste": 7610,
      "illeg": 7611,
      "popolazione": 7612,
      "Ba": 7613,
      "Put": 7614,
      "##vità": 7615,
      "scrit": 7616,
      "incontro": 7617,
      "nascon": 7618,
      "regole": 7619,
      "doub": 7620,
      "king": 7621,
      "arra": 7622,
      "proposito": 7623,
      "diverso": 7624,
      "Nick": 7625,
      "Very": 7626,
      "competition": 7627,
      "##ho": 7628,
      "cibo": 7629,
      "visita": 7630,
      "Ciò": 7631,
      "sale": 7632,
      "vanno": 7633,
      "##mia": 7634,
      "##ham": 7635,
      "##uiti": 7636,
      "##TA": 7637,
      "##TO": 7638,
      "##cious": 7639,
      "ALL": 7640,
      "##ises": 7641,
      "Lav": 7642,
      "fal": 7643,
      "unit": 7644,
      "pressure": 7645,
      "cliente": 7646,
      "achieve": 7647,
      "Juli": 7648,
      "Mm": 7649,
      "pieno": 7650,
      "felt": 7651,
      "Those": 7652,
      "disse": 7653,
      "riport": 7654,
      "voluto": 7655,
      "recu": 7656,
      "ordin": 7657,
      "credit": 7658,
      "veget": 7659,
      "Rome": 7660,
      "pisto": 7661,
      "tradition": 7662,
      "vivo": 7663,
      "cerca": 7664,
      "Num": 7665,
      "##alu": 7666,
      "##tello": 7667,
      "spetta": 7668,
      "contatto": 7669,
      "farmi": 7670,
      "appartamento": 7671,
      "##amn": 7672,
      "##atemi": 7673,
      "##load": 7674,
      "changed": 7675,
      "cere": 7676,
      "lato": 7677,
      "##tian": 7678,
      "##icato": 7679,
      "Never": 7680,
      "fortuna": 7681,
      "dinner": 7682,
      "oh": 7683,
      "##ints": 7684,
      "became": 7685,
      "kept": 7686,
      "##los": 7687,
      "##fortun": 7688,
      "workers": 7689,
      "Propri": 7690,
      "hang": 7691,
      "guida": 7692,
      "matrimonio": 7693,
      "requis": 7694,
      "sfor": 7695,
      "tari": 7696,
      "intra": 7697,
      "##ams": 7698,
      "member": 7699,
      "belong": 7700,
      "dubb": 7701,
      "##vendo": 7702,
      "sociali": 7703,
      "99": 7704,
      "Jen": 7705,
      "##pot": 7706,
      "comunità": 7707,
      "codice": 7708,
      "Bre": 7709,
      "Na": 7710,
      "##ander": 7711,
      "insul": 7712,
      "clearly": 7713,
      "Fac": 7714,
      "catti": 7715,
      "sottoline": 7716,
      "attrib": 7717,
      "mentioned": 7718,
      "Centr": 7719,
      "fing": 7720,
      "##umin": 7721,
      "accordi": 7722,
      "sicura": 7723,
      "##rows": 7724,
      "Ear": 7725,
      "favour": 7726,
      "putt": 7727,
      "promise": 7728,
      "prossima": 7729,
      "vede": 7730,
      "technology": 7731,
      "rapid": 7732,
      "Keep": 7733,
      "hospital": 7734,
      "Rel": 7735,
      "rates": 7736,
      "##wise": 7737,
      "repe": 7738,
      "visi": 7739,
      "##visi": 7740,
      "Prob": 7741,
      "phys": 7742,
      "Nice": 7743,
      "##bbia": 7744,
      "discip": 7745,
      "assicur": 7746,
      "carri": 7747,
      "happens": 7748,
      "additional": 7749,
      "education": 7750,
      "conformità": 7751,
      "##minazione": 7752,
      "addi": 7753,
      "freedom": 7754,
      "Ob": 7755,
      "deg": 7756,
      "arrest": 7757,
      "##ucia": 7758,
      "population": 7759,
      "lavoratori": 7760,
      "transi": 7761,
      "cambiare": 7762,
      "Jane": 7763,
      "cento": 7764,
      "##tally": 7765,
      "riduzione": 7766,
      "target": 7767,
      "responsabile": 7768,
      "Data": 7769,
      "Got": 7770,
      "Most": 7771,
      "sesso": 7772,
      "##tero": 7773,
      "strumento": 7774,
      "mission": 7775,
      "central": 7776,
      "vogliamo": 7777,
      "recommend": 7778,
      "##bilities": 7779,
      "deleg": 7780,
      "Temperatura": 7781,
      "ON": 7782,
      "shi": 7783,
      "neigh": 7784,
      "importazione": 7785,
      "aperto": 7786,
      "continuare": 7787,
      "risultato": 7788,
      "responsibility": 7789,
      "Could": 7790,
      "ES": 7791,
      "station": 7792,
      "##urance": 7793,
      "moving": 7794,
      "sosten": 7795,
      "probabilmente": 7796,
      "assistenza": 7797,
      "Voi": 7798,
      "Oli": 7799,
      "Sic": 7800,
      "lista": 7801,
      "belle": 7802,
      "scusi": 7803,
      "supply": 7804,
      "basic": 7805,
      "IL": 7806,
      "duty": 7807,
      "##irs": 7808,
      "##iglie": 7809,
      "##000": 7810,
      "competent": 7811,
      "regional": 7812,
      "argom": 7813,
      "##eal": 7814,
      "##ele": 7815,
      "finita": 7816,
      "194": 7817,
      "progressi": 7818,
      "ite": 7819,
      "##orie": 7820,
      "weap": 7821,
      "currently": 7822,
      "Bud": 7823,
      "età": 7824,
      "Inc": 7825,
      "content": 7826,
      "poiché": 7827,
      "century": 7828,
      "mediante": 7829,
      "higher": 7830,
      "divertente": 7831,
      "board": 7832,
      "proposals": 7833,
      "##umi": 7834,
      "vera": 7835,
      "essential": 7836,
      "thereof": 7837,
      "febbraio": 7838,
      "boys": 7839,
      "cic": 7840,
      "##iorno": 7841,
      "##lier": 7842,
      "sugli": 7843,
      "Maria": 7844,
      "miglia": 7845,
      "intenzione": 7846,
      "mili": 7847,
      "modello": 7848,
      "Gesù": 7849,
      "uccidere": 7850,
      "hi": 7851,
      "##hol": 7852,
      "activity": 7853,
      "repl": 7854,
      "certific": 7855,
      "Kar": 7856,
      "Rich": 7857,
      "born": 7858,
      "programmes": 7859,
      "##____": 7860,
      "au": 7861,
      "ena": 7862,
      "##IZ": 7863,
      "importo": 7864,
      "offerta": 7865,
      "od": 7866,
      "##irà": 7867,
      "Confer": 7868,
      "sometimes": 7869,
      "rapporte": 7870,
      "presentato": 7871,
      "Ta": 7872,
      "Tor": 7873,
      "Win": 7874,
      "##erne": 7875,
      "##omo": 7876,
      "##ounds": 7877,
      "##tituzione": 7878,
      "calling": 7879,
      "proposed": 7880,
      "articoli": 7881,
      "simply": 7882,
      "fru": 7883,
      "compi": 7884,
      "simile": 7885,
      "azienda": 7886,
      "51": 7887,
      "exchange": 7888,
      "collo": 7889,
      "primi": 7890,
      "potrebbero": 7891,
      "model": 7892,
      "raggiungere": 7893,
      "indirizzo": 7894,
      "Sub": 7895,
      "nota": 7896,
      "ran": 7897,
      "size": 7898,
      "##zzati": 7899,
      "solito": 7900,
      "Und": 7901,
      "gri": 7902,
      "ener": 7903,
      "tipi": 7904,
      "conserv": 7905,
      "creazione": 7906,
      "religi": 7907,
      "esecuzione": 7908,
      "Od": 7909,
      "##erla": 7910,
      "giusta": 7911,
      "principle": 7912,
      "confronti": 7913,
      "tramite": 7914,
      "Sie": 7915,
      "fill": 7916,
      "##rate": 7917,
      "##ening": 7918,
      "imped": 7919,
      "tip": 7920,
      "relating": 7921,
      "profess": 7922,
      "ferro": 7923,
      "normale": 7924,
      "leader": 7925,
      "sacri": 7926,
      "reasons": 7927,
      "Dom": 7928,
      "Dani": 7929,
      "##uno": 7930,
      "##ulf": 7931,
      "Spain": 7932,
      "agricol": 7933,
      "comunitaria": 7934,
      "install": 7935,
      "Gran": 7936,
      "##endono": 7937,
      "cook": 7938,
      "##ressa": 7939,
      "charge": 7940,
      "glass": 7941,
      "mouth": 7942,
      "oli": 7943,
      "##set": 7944,
      "plant": 7945,
      "musica": 7946,
      "une": 7947,
      "espri": 7948,
      "chiave": 7949,
      "Call": 7950,
      "Slo": 7951,
      "cena": 7952,
      "##bur": 7953,
      "dipend": 7954,
      "reform": 7955,
      "faith": 7956,
      "surf": 7957,
      "amendments": 7958,
      "##EA": 7959,
      "##lia": 7960,
      "spiace": 7961,
      "merda": 7962,
      "strategia": 7963,
      "##mark": 7964,
      "##OS": 7965,
      "scorso": 7966,
      "internazionali": 7967,
      "Fuck": 7968,
      "Pensi": 7969,
      "##used": 7970,
      "##ulg": 7971,
      "potrei": 7972,
      "decisioni": 7973,
      "allowed": 7974,
      "ecce": 7975,
      "##lam": 7976,
      "Indi": 7977,
      "stim": 7978,
      "added": 7979,
      "equipment": 7980,
      "feder": 7981,
      "##rop": 7982,
      "giovane": 7983,
      "fornire": 7984,
      "August": 7985,
      "dib": 7986,
      "##atevi": 7987,
      "dovresti": 7988,
      "Father": 7989,
      "Net": 7990,
      "##cos": 7991,
      "##ambio": 7992,
      "opportuno": 7993,
      "riconosci": 7994,
      "practice": 7995,
      "Austria": 7996,
      "compli": 7997,
      "appare": 7998,
      "built": 7999,
      "tanti": 8000,
      "##mail": 8001,
      "trasform": 8002,
      "inferiore": 8003,
      "album": 8004,
      "Fun": 8005,
      "##ja": 8006,
      "esso": 8007,
      "presenti": 8008,
      "vedi": 8009,
      "continua": 8010,
      "soggi": 8011,
      "migliorare": 8012,
      "Mia": 8013,
      "Comitato": 8014,
      "chiar": 8015,
      "comuni": 8016,
      "venga": 8017,
      "bitch": 8018,
      "elenco": 8019,
      "53": 8020,
      "89": 8021,
      "Eh": 8022,
      "Hold": 8023,
      "catch": 8024,
      "##rag": 8025,
      "1991": 8026,
      "funzione": 8027,
      "parts": 8028,
      "questioni": 8029,
      "conseguenza": 8030,
      "Ry": 8031,
      "search": 8032,
      "##versi": 8033,
      "below": 8034,
      "damn": 8035,
      "52": 8036,
      "Sud": 8037,
      "usato": 8038,
      "wood": 8039,
      "##TER": 8040,
      "regards": 8041,
      "court": 8042,
      "foreign": 8043,
      "National": 8044,
      "loss": 8045,
      "anyway": 8046,
      "##orrere": 8047,
      "##unities": 8048,
      "remain": 8049,
      "56": 8050,
      "##vono": 8051,
      "stesse": 8052,
      "intero": 8053,
      "cape": 8054,
      "joint": 8055,
      "Basta": 8056,
      "##ciò": 8057,
      "##attato": 8058,
      "persons": 8059,
      "principi": 8060,
      "##cellent": 8061,
      "Cat": 8062,
      "ml": 8063,
      "##bia": 8064,
      "perchè": 8065,
      "##dito": 8066,
      "rafforz": 8067,
      "congrat": 8068,
      "##cher": 8069,
      "impact": 8070,
      "instead": 8071,
      "sbagliato": 8072,
      "tir": 8073,
      "##AG": 8074,
      "##BI": 8075,
      "...?": 8076,
      "regions": 8077,
      "Deve": 8078,
      "bere": 8079,
      "os": 8080,
      "ristor": 8081,
      "##anzo": 8082,
      "##issi": 8083,
      "pochi": 8084,
      "importance": 8085,
      "avevano": 8086,
      "lady": 8087,
      "webs": 8088,
      "naturale": 8089,
      "Org": 8090,
      "precedente": 8091,
      "vit": 8092,
      "##inted": 8093,
      "##ller": 8094,
      "##uralmente": 8095,
      "metri": 8096,
      "mercati": 8097,
      "pressione": 8098,
      "restaur": 8099,
      "batt": 8100,
      "##osh": 8101,
      "##venuto": 8102,
      "##itazione": 8103,
      "opportunità": 8104,
      "investment": 8105,
      "##oke": 8106,
      "arrange": 8107,
      "faro": 8108,
      "cold": 8109,
      "relax": 8110,
      "earth": 8111,
      "modificato": 8112,
      "Potrebbe": 8113,
      "criteri": 8114,
      "##hold": 8115,
      "##ired": 8116,
      "morti": 8117,
      "francese": 8118,
      "Gar": 8119,
      "Jer": 8120,
      "valid": 8121,
      "modern": 8122,
      "celebr": 8123,
      "rappresenta": 8124,
      "song": 8125,
      "atmos": 8126,
      "interested": 8127,
      "##venire": 8128,
      "China": 8129,
      "values": 8130,
      "explain": 8131,
      "designed": 8132,
      "Everything": 8133,
      "arte": 8134,
      "prevent": 8135,
      "applied": 8136,
      "community": 8137,
      "bull": 8138,
      "permesso": 8139,
      "finanziario": 8140,
      "complic": 8141,
      "politici": 8142,
      "##aticamente": 8143,
      "turned": 8144,
      "individu": 8145,
      "batter": 8146,
      "##oo": 8147,
      "##oma": 8148,
      "iniziato": 8149,
      "status": 8150,
      "guarantee": 8151,
      "fly": 8152,
      "passe": 8153,
      "reale": 8154,
      "##segu": 8155,
      "sorpres": 8156,
      "##olutely": 8157,
      "Feder": 8158,
      "train": 8159,
      "acquis": 8160,
      "rus": 8161,
      "varie": 8162,
      "##EG": 8163,
      "politico": 8164,
      "merci": 8165,
      "granted": 8166,
      "percent": 8167,
      "##lare": 8168,
      "##hile": 8169,
      "standards": 8170,
      "Proprio": 8171,
      "Lat": 8172,
      "Via": 8173,
      "stage": 8174,
      "agreed": 8175,
      "picture": 8176,
      "Cosi": 8177,
      "accad": 8178,
      "traffic": 8179,
      "consiglio": 8180,
      "classe": 8181,
      "Volevo": 8182,
      "lontano": 8183,
      "dot": 8184,
      "kit": 8185,
      "##ogue": 8186,
      "pagamento": 8187,
      "onorevoli": 8188,
      "##nell": 8189,
      "##osing": 8190,
      "discri": 8191,
      "decisions": 8192,
      "approved": 8193,
      "choose": 8194,
      "documento": 8195,
      "Stiamo": 8196,
      "concorrenza": 8197,
      "fear": 8198,
      "immo": 8199,
      "##erved": 8200,
      "dip": 8201,
      "tizio": 8202,
      "prende": 8203,
      "original": 8204,
      "Ascolta": 8205,
      "\")": 8206,
      "path": 8207,
      "starting": 8208,
      "crisis": 8209,
      "affinché": 8210,
      "breat": 8211,
      "pray": 8212,
      "##ging": 8213,
      "##UC": 8214,
      "spend": 8215,
      "verrà": 8216,
      "esercizio": 8217,
      "scat": 8218,
      "Really": 8219,
      "difficoltà": 8220,
      "Windows": 8221,
      "Mos": 8222,
      "vale": 8223,
      "##af": 8224,
      "##uovere": 8225,
      "##ffee": 8226,
      "cucina": 8227,
      "##iego": 8228,
      "Arri": 8229,
      "Super": 8230,
      "quota": 8231,
      "##gest": 8232,
      "exceed": 8233,
      "centre": 8234,
      "denaro": 8235,
      "aerop": 8236,
      "Fine": 8237,
      "weak": 8238,
      "##ggiare": 8239,
      "economia": 8240,
      "increased": 8241,
      "guardare": 8242,
      "provides": 8243,
      "ria": 8244,
      "##alli": 8245,
      "##voc": 8246,
      "chall": 8247,
      "write": 8248,
      "independ": 8249,
      "affrontare": 8250,
      "94": 8251,
      "City": 8252,
      "Tes": 8253,
      "Regolamento": 8254,
      "porti": 8255,
      "Fri": 8256,
      "rendere": 8257,
      "Church": 8258,
      "witness": 8259,
      "reti": 8260,
      "##ystem": 8261,
      "published": 8262,
      "Serv": 8263,
      "aware": 8264,
      "##ple": 8265,
      "##ulate": 8266,
      "pret": 8267,
      "##quill": 8268,
      "puli": 8269,
      "fantastico": 8270,
      "capitale": 8271,
      "engine": 8272,
      "electric": 8273,
      "Cop": 8274,
      "##sec": 8275,
      "pratica": 8276,
      "##posto": 8277,
      "materials": 8278,
      "Siete": 8279,
      "##essero": 8280,
      "##porti": 8281,
      "skin": 8282,
      "versione": 8283,
      "Far": 8284,
      "##unti": 8285,
      "##terday": 8286,
      "colore": 8287,
      "integra": 8288,
      "entrata": 8289,
      "Pat": 8290,
      "nave": 8291,
      "##OM": 8292,
      "##ague": 8293,
      "prior": 8294,
      "lavora": 8295,
      "controllare": 8296,
      "funny": 8297,
      "secolo": 8298,
      "surr": 8299,
      "certainly": 8300,
      "##undred": 8301,
      "ospedale": 8302,
      "HA": 8303,
      "civil": 8304,
      "funds": 8305,
      "slow": 8306,
      "criteria": 8307,
      "prevede": 8308,
      "assolutamente": 8309,
      "energe": 8310,
      "Den": 8311,
      "sport": 8312,
      "popolo": 8313,
      "purposes": 8314,
      "##itable": 8315,
      "Queste": 8316,
      "venuta": 8317,
      "considerazione": 8318,
      "Supp": 8319,
      "inglese": 8320,
      "ni": 8321,
      "produce": 8322,
      "##osizione": 8323,
      "payment": 8324,
      "refle": 8325,
      "##11": 8326,
      "##retto": 8327,
      "inclus": 8328,
      "matters": 8329,
      "arriv": 8330,
      "##ommod": 8331,
      "demand": 8332,
      "conformemente": 8333,
      "##EL": 8334,
      "##yal": 8335,
      "mecc": 8336,
      "##ulare": 8337,
      "##icies": 8338,
      "survi": 8339,
      "Mess": 8340,
      "fred": 8341,
      "shut": 8342,
      "seeing": 8343,
      "##ommy": 8344,
      "dichiarazione": 8345,
      "scoperto": 8346,
      "gh": 8347,
      "rende": 8348,
      "soul": 8349,
      "##tamente": 8350,
      "##IF": 8351,
      "gives": 8352,
      "knowledge": 8353,
      "vieni": 8354,
      "arrivato": 8355,
      "culture": 8356,
      "immediately": 8357,
      "##UNIT": 8358,
      "##razioni": 8359,
      "necessarie": 8360,
      "evening": 8361,
      "equival": 8362,
      "57": 8363,
      "cab": 8364,
      "hop": 8365,
      "svegli": 8366,
      "##coli": 8367,
      "##oles": 8368,
      "##veness": 8369,
      "chiede": 8370,
      "minuto": 8371,
      "straight": 8372,
      "capacity": 8373,
      "dottore": 8374,
      "Air": 8375,
      "##volo": 8376,
      "##hood": 8377,
      "seven": 8378,
      "##fiche": 8379,
      "Conos": 8380,
      "utilizzare": 8381,
      "glad": 8382,
      "##anotte": 8383,
      "dimin": 8384,
      "##itano": 8385,
      "##uten": 8386,
      "immagine": 8387,
      "pensavo": 8388,
      "##ccid": 8389,
      "##onte": 8390,
      "Alcun": 8391,
      "color": 8392,
      "##volta": 8393,
      "cy": 8394,
      "lower": 8395,
      "##zone": 8396,
      "forg": 8397,
      "solle": 8398,
      "##istra": 8399,
      "benefit": 8400,
      "Number": 8401,
      "Du": 8402,
      "gro": 8403,
      "vino": 8404,
      "150": 8405,
      "alcuna": 8406,
      "average": 8407,
      "missing": 8408,
      "piece": 8409,
      "Raga": 8410,
      "##mas": 8411,
      "interessi": 8412,
      "##etting": 8413,
      "##attito": 8414,
      "##phy": 8415,
      "Vol": 8416,
      "fish": 8417,
      "considerando": 8418,
      "rooms": 8419,
      "investimenti": 8420,
      "abbiano": 8421,
      "menti": 8422,
      "becom": 8423,
      "##aries": 8424,
      "chiamata": 8425,
      "corrispond": 8426,
      "Ul": 8427,
      "ine": 8428,
      "##ettila": 8429,
      "provision": 8430,
      "Central": 8431,
      "hom": 8432,
      "rich": 8433,
      "##lock": 8434,
      "Convention": 8435,
      "##rendi": 8436,
      "broad": 8437,
      "maniera": 8438,
      "Kingdom": 8439,
      "##anzia": 8440,
      "mangi": 8441,
      "potete": 8442,
      "divor": 8443,
      "Numero": 8444,
      "diam": 8445,
      "pagina": 8446,
      "differenza": 8447,
      "##enziali": 8448,
      "succedendo": 8449,
      "entry": 8450,
      "aum": 8451,
      "##put": 8452,
      "##pir": 8453,
      "##reste": 8454,
      "except": 8455,
      "files": 8456,
      "Last": 8457,
      "Matt": 8458,
      "##ribed": 8459,
      "cultural": 8460,
      "virus": 8461,
      "High": 8462,
      "produttori": 8463,
      "vive": 8464,
      "bocca": 8465,
      "proprietà": 8466,
      "1989": 8467,
      "missione": 8468,
      "spav": 8469,
      "directive": 8470,
      "giocare": 8471,
      "FOR": 8472,
      "##sian": 8473,
      "necessari": 8474,
      "policies": 8475,
      "illust": 8476,
      "produced": 8477,
      "existing": 8478,
      "rapporteur": 8479,
      "Count": 8480,
      "nord": 8481,
      "##titi": 8482,
      "##isca": 8483,
      "##uss": 8484,
      "stress": 8485,
      "Quel": 8486,
      "afferm": 8487,
      "recent": 8488,
      "basso": 8489,
      "disponibile": 8490,
      "requisiti": 8491,
      "bigli": 8492,
      "dunque": 8493,
      "ormai": 8494,
      "utilizzo": 8495,
      "Madam": 8496,
      "fisc": 8497,
      "##IP": 8498,
      "##apter": 8499,
      "cercato": 8500,
      "speciali": 8501,
      "conoscenza": 8502,
      "boss": 8503,
      "alber": 8504,
      "worse": 8505,
      "avvic": 8506,
      "##thern": 8507,
      "proprie": 8508,
      "shows": 8509,
      "happening": 8510,
      "bravo": 8511,
      "Economic": 8512,
      "destroy": 8513,
      "##erei": 8514,
      "amica": 8515,
      "defined": 8516,
      "provare": 8517,
      "materiale": 8518,
      "India": 8519,
      "##mar": 8520,
      "togli": 8521,
      "##elles": 8522,
      "estrem": 8523,
      "ways": 8524,
      "organ": 8525,
      "Unito": 8526,
      "etc": 8527,
      "honey": 8528,
      "finale": 8529,
      "carne": 8530,
      "voice": 8531,
      "occorre": 8532,
      "meaning": 8533,
      "arrivo": 8534,
      "mantenere": 8535,
      "##asure": 8536,
      "precedenti": 8537,
      "58": 8538,
      "##mato": 8539,
      "totally": 8540,
      "presenta": 8541,
      "##ronic": 8542,
      "Nell": 8543,
      "##UR": 8544,
      "##inese": 8545,
      "fault": 8546,
      "lascia": 8547,
      "property": 8548,
      "##esimo": 8549,
      "unless": 8550,
      "ciascun": 8551,
      "dangerous": 8552,
      "scom": 8553,
      "peggio": 8554,
      "culo": 8555,
      "FR": 8556,
      "##yond": 8557,
      "cong": 8558,
      "##ils": 8559,
      "imports": 8560,
      "sarei": 8561,
      "##cità": 8562,
      "##ciata": 8563,
      "Spagna": 8564,
      "correct": 8565,
      "machine": 8566,
      "demonstr": 8567,
      "##ych": 8568,
      "##oga": 8569,
      "sopp": 8570,
      "merav": 8571,
      "piccole": 8572,
      "global": 8573,
      "76": 8574,
      "double": 8575,
      "##ucch": 8576,
      "auton": 8577,
      "center": 8578,
      "response": 8579,
      "attack": 8580,
      "Mediterrane": 8581,
      "omicidio": 8582,
      "gay": 8583,
      "mountain": 8584,
      "operazione": 8585,
      "provato": 8586,
      "conosco": 8587,
      "materiali": 8588,
      "##........": 8589,
      "##oh": 8590,
      "##EM": 8591,
      "presa": 8592,
      "Prof": 8593,
      "provved": 8594,
      "massima": 8595,
      "immediatamente": 8596,
      "84": 8597,
      "hundred": 8598,
      "##ppia": 8599,
      "Comunque": 8600,
      "funzionamento": 8601,
      "fishing": 8602,
      "incidente": 8603,
      "Son": 8604,
      "##erap": 8605,
      "##arr": 8606,
      "##ulo": 8607,
      "##acia": 8608,
      "weird": 8609,
      "verita": 8610,
      "##sels": 8611,
      "rispetti": 8612,
      "strategy": 8613,
      "59": 8614,
      "##kely": 8615,
      "inqu": 8616,
      "bodies": 8617,
      "express": 8618,
      "military": 8619,
      "contract": 8620,
      "##AZIONE": 8621,
      "##ground": 8622,
      "Alm": 8623,
      "tenuto": 8624,
      "developed": 8625,
      "aggiorn": 8626,
      "vendita": 8627,
      "Portug": 8628,
      "investigation": 8629,
      "communication": 8630,
      "scegliere": 8631,
      "pad": 8632,
      "##bro": 8633,
      "##top": 8634,
      "consequ": 8635,
      "##ilomet": 8636,
      "##struc": 8637,
      "interesting": 8638,
      "holding": 8639,
      "objectives": 8640,
      "written": 8641,
      "##????": 8642,
      "Free": 8643,
      "apart": 8644,
      "gene": 8645,
      "sell": 8646,
      "spor": 8647,
      "places": 8648,
      "lunga": 8649,
      "Office": 8650,
      "tema": 8651,
      "register": 8652,
      "direzione": 8653,
      "rock": 8654,
      "Brus": 8655,
      "##ourage": 8656,
      "quickly": 8657,
      "Ara": 8658,
      "Ju": 8659,
      "appo": 8660,
      "intera": 8661,
      "riti": 8662,
      "restare": 8663,
      "chiedo": 8664,
      "agreements": 8665,
      "geogra": 8666,
      "Vis": 8667,
      "sitting": 8668,
      "##ban": 8669,
      "beat": 8670,
      "evalu": 8671,
      "crime": 8672,
      "details": 8673,
      "pistola": 8674,
      "Ga": 8675,
      "tasso": 8676,
      "previous": 8677,
      "exer": 8678,
      "poll": 8679,
      "avvi": 8680,
      "constitu": 8681,
      "potential": 8682,
      "domes": 8683,
      "Magari": 8684,
      "During": 8685,
      "Santa": 8686,
      "Tel": 8687,
      "du": 8688,
      "ren": 8689,
      "##xelles": 8690,
      "##isse": 8691,
      "prosp": 8692,
      "former": 8693,
      "qualunque": 8694,
      "official": 8695,
      "analysis": 8696,
      "Ten": 8697,
      "##uramente": 8698,
      "##andy": 8699,
      "chiamo": 8700,
      "Program": 8701,
      "##amental": 8702,
      "iniziare": 8703,
      "East": 8704,
      "....": 8705,
      "richied": 8706,
      "college": 8707,
      "fixed": 8708,
      "London": 8709,
      "puttana": 8710,
      "Pron": 8711,
      "mattina": 8712,
      "markets": 8713,
      "libera": 8714,
      "Bruxelles": 8715,
      "##racy": 8716,
      "Vado": 8717,
      "quantit": 8718,
      "aereo": 8719,
      "Government": 8720,
      "Ess": 8721,
      "rum": 8722,
      "mezzi": 8723,
      "##ogna": 8724,
      "##apan": 8725,
      "giudi": 8726,
      "costruzione": 8727,
      "Cy": 8728,
      "veter": 8729,
      "##ened": 8730,
      "##ental": 8731,
      "prot": 8732,
      "whom": 8733,
      "medical": 8734,
      "distr": 8735,
      "portata": 8736,
      "contenuto": 8737,
      "Fai": 8738,
      "cane": 8739,
      "usually": 8740,
      "closed": 8741,
      "rimanere": 8742,
      "Lis": 8743,
      "nerv": 8744,
      "»,": 8745,
      "##nel": 8746,
      "##xy": 8747,
      "##fin": 8748,
      "##rote": 8749,
      "isol": 8750,
      "meant": 8751,
      "series": 8752,
      "Già": 8753,
      "regarding": 8754,
      "quantità": 8755,
      "interests": 8756,
      "industrial": 8757,
      "prepared": 8758,
      "Actually": 8759,
      "cast": 8760,
      "wed": 8761,
      "##ager": 8762,
      "##zzate": 8763,
      "shouldn": 8764,
      "Prod": 8765,
      "looked": 8766,
      "street": 8767,
      "minimum": 8768,
      ".”": 8769,
      "stic": 8770,
      "##estiv": 8771,
      "##istico": 8772,
      "thus": 8773,
      "rispon": 8774,
      "##uttore": 8775,
      "Paesi": 8776,
      "trip": 8777,
      "studies": 8778,
      "green": 8779,
      "efficace": 8780,
      "##house": 8781,
      "loved": 8782,
      "##ongiorno": 8783,
      "concent": 8784,
      "assistance": 8785,
      "Bur": 8786,
      "Nord": 8787,
      "Say": 8788,
      "##mere": 8789,
      "##itely": 8790,
      "appunt": 8791,
      "actions": 8792,
      "writing": 8793,
      "manten": 8794,
      "caratteristiche": 8795,
      "emendamenti": 8796,
      "gold": 8797,
      "##bus": 8798,
      "throw": 8799,
      "iniziativa": 8800,
      "partecipazione": 8801,
      "72": 8802,
      "Est": 8803,
      "Sy": 8804,
      "##arily": 8805,
      "##entato": 8806,
      "##aged": 8807,
      "reports": 8808,
      "consumatori": 8809,
      "utenti": 8810,
      "Mor": 8811,
      "##uol": 8812,
      "##mentari": 8813,
      "minimo": 8814,
      "dolce": 8815,
      "62": 8816,
      "86": 8817,
      "Van": 8818,
      "nomin": 8819,
      "prigione": 8820,
      "##wood": 8821,
      "gradi": 8822,
      "idio": 8823,
      "increasing": 8824,
      "##engono": 8825,
      "previsto": 8826,
      "Time": 8827,
      "Vedi": 8828,
      "wide": 8829,
      "##ee": 8830,
      "contesto": 8831,
      "rib": 8832,
      "possano": 8833,
      "durata": 8834,
      "calm": 8835,
      "piccoli": 8836,
      "version": 8837,
      "Dice": 8838,
      "##34": 8839,
      "##arity": 8840,
      "location": 8841,
      "limited": 8842,
      "umano": 8843,
      "Thom": 8844,
      "Park": 8845,
      "##umption": 8846,
      "dolore": 8847,
      "undertaking": 8848,
      "##iling": 8849,
      "submitted": 8850,
      "economy": 8851,
      "Ira": 8852,
      "Mel": 8853,
      "muse": 8854,
      "anzi": 8855,
      "recip": 8856,
      "##enty": 8857,
      "sezione": 8858,
      "vecchia": 8859,
      "operations": 8860,
      "ridurre": 8861,
      "particolarmente": 8862,
      "fresh": 8863,
      "Brussels": 8864,
      "scene": 8865,
      "scared": 8866,
      "discover": 8867,
      "sostanze": 8868,
      "cioè": 8869,
      "elabor": 8870,
      "##over": 8871,
      "##fast": 8872,
      "##itamente": 8873,
      "expos": 8874,
      "mix": 8875,
      "Chiesa": 8876,
      "balance": 8877,
      "ACP": 8878,
      "Japan": 8879,
      "Something": 8880,
      "led": 8881,
      "island": 8882,
      "extrem": 8883,
      "scusa": 8884,
      "pull": 8885,
      "sentir": 8886,
      "navi": 8887,
      "annual": 8888,
      "cultura": 8889,
      "USA": 8890,
      "capelli": 8891,
      "ign": 8892,
      "##burg": 8893,
      "##razi": 8894,
      "shown": 8895,
      "aspettare": 8896,
      "ridic": 8897,
      "finanziari": 8898,
      "elettron": 8899,
      "wonderful": 8900,
      "Durante": 8901,
      "##cast": 8902,
      "diso": 8903,
      "##utato": 8904,
      "appog": 8905,
      "Members": 8906,
      "replaced": 8907,
      "vada": 8908,
      "##PS": 8909,
      "perhaps": 8910,
      "carico": 8911,
      "calls": 8912,
      "intended": 8913,
      ".'": 8914,
      "Aut": 8915,
      "Danny": 8916,
      "Sci": 8917,
      "mun": 8918,
      "Rec": 8919,
      "finanziamento": 8920,
      "Jud": 8921,
      "Sara": 8922,
      "Vir": 8923,
      "fum": 8924,
      "##ccare": 8925,
      "uscita": 8926,
      "##collo": 8927,
      "##IONI": 8928,
      "1988": 8929,
      "North": 8930,
      "bug": 8931,
      "gros": 8932,
      "sched": 8933,
      "##ervazione": 8934,
      "avvocato": 8935,
      "Ann": 8936,
      "species": 8937,
      "utile": 8938,
      "globale": 8939,
      "fortun": 8940,
      "metodo": 8941,
      "raccomand": 8942,
      "##itate": 8943,
      "conti": 8944,
      "eser": 8945,
      "##ording": 8946,
      "Develop": 8947,
      "clot": 8948,
      "metà": 8949,
      "civili": 8950,
      "rilev": 8951,
      "draft": 8952,
      "Help": 8953,
      "sli": 8954,
      "dear": 8955,
      "##teriore": 8956,
      "realta": 8957,
      "perfetto": 8958,
      "connection": 8959,
      "64": 8960,
      "Over": 8961,
      "kiss": 8962,
      "forms": 8963,
      "attre": 8964,
      "polizi": 8965,
      "Assemb": 8966,
      "ragazz": 8967,
      "Sarebbe": 8968,
      "website": 8969,
      "van": 8970,
      "##cin": 8971,
      "##oph": 8972,
      "White": 8973,
      "scale": 8974,
      "coffee": 8975,
      "incar": 8976,
      "##mented": 8977,
      "Mark": 8978,
      "Willi": 8979,
      "context": 8980,
      "structure": 8981,
      "tariff": 8982,
      "##mers": 8983,
      "daily": 8984,
      "gift": 8985,
      "compati": 8986,
      "pred": 8987,
      "interrog": 8988,
      "partita": 8989,
      "difference": 8990,
      "##book": 8991,
      "border": 8992,
      "tick": 8993,
      "##telo": 8994,
      "##arden": 8995,
      "guad": 8996,
      "Cause": 8997,
      "majority": 8998,
      "commercial": 8999,
      "assessment": 9000,
      "doubt": 9001,
      "arrabbi": 9002,
      "Under": 9003,
      "exercis": 9004,
      "Tale": 9005,
      "##ned": 9006,
      "##reet": 9007,
      "##lea": 9008,
      "lay": 9009,
      "##ford": 9010,
      "traff": 9011,
      "track": 9012,
      "carattere": 9013,
      "certa": 9014,
      "volete": 9015,
      "attemp": 9016,
      "regular": 9017,
      "chiunque": 9018,
      "##avy": 9019,
      "Captain": 9020,
      "movement": 9021,
      "##erete": 9022,
      "sugar": 9023,
      "##ppy": 9024,
      "load": 9025,
      "exam": 9026,
      "anybody": 9027,
      "ourselves": 9028,
      "faremo": 9029,
      "throughout": 9030,
      "finanziaria": 9031,
      "patient": 9032,
      "advanta": 9033,
      "accompagn": 9034,
      "Ros": 9035,
      "source": 9036,
      "mech": 9037,
      "spent": 9038,
      "finire": 9039,
      "buono": 9040,
      "superi": 9041,
      "restric": 9042,
      "tecnologia": 9043,
      "contratto": 9044,
      "autorizzazione": 9045,
      "stampa": 9046,
      "Auth": 9047,
      "Ty": 9048,
      "Tod": 9049,
      "beyond": 9050,
      "##bilita": 9051,
      "reading": 9052,
      "scelto": 9053,
      "professional": 9054,
      "window": 9055,
      "disease": 9056,
      "66": 9057,
      "77": 9058,
      "Bal": 9059,
      "Senza": 9060,
      "##cal": 9061,
      "##30": 9062,
      "##vera": 9063,
      "Therefore": 9064,
      "conoscere": 9065,
      "ascolt": 9066,
      "objective": 9067,
      "FBI": 9068,
      "##then": 9069,
      "##SC": 9070,
      "adesione": 9071,
      "rule": 9072,
      "Cioe": 9073,
      "##gia": 9074,
      "Make": 9075,
      "quiet": 9076,
      "dormire": 9077,
      "compagnia": 9078,
      "Out": 9079,
      "Vin": 9080,
      "##ites": 9081,
      "chiamare": 9082,
      "specifiche": 9083,
      "difesa": 9084,
      "##cono": 9085,
      "##etra": 9086,
      "##utati": 9087,
      "##uris": 9088,
      "##icip": 9089,
      "condizione": 9090,
      "flu": 9091,
      "##tituire": 9092,
      "territory": 9093,
      "istruzione": 9094,
      "bathroom": 9095,
      "dura": 9096,
      "zucch": 9097,
      "##essione": 9098,
      "pian": 9099,
      "church": 9100,
      "Leg": 9101,
      "adul": 9102,
      "rile": 9103,
      "##landa": 9104,
      "maintain": 9105,
      "utilizzati": 9106,
      "##tish": 9107,
      "image": 9108,
      "commerciali": 9109,
      "riunione": 9110,
      "Jimmy": 9111,
      "considera": 9112,
      "Oper": 9113,
      "Wi": 9114,
      "latte": 9115,
      "##attu": 9116,
      "##tile": 9117,
      "conn": 9118,
      "proceed": 9119,
      "Three": 9120,
      "compito": 9121,
      "contributo": 9122,
      "summer": 9123,
      "Luc": 9124,
      "excellent": 9125,
      "avanz": 9126,
      "##aves": 9127,
      "abbandon": 9128,
      "organizzazioni": 9129,
      "scoprire": 9130,
      "circum": 9131,
      "amazing": 9132,
      "fondamentale": 9133,
      "##fort": 9134,
      "##inal": 9135,
      "##rie": 9136,
      "##ficie": 9137,
      "Jeff": 9138,
      "gel": 9139,
      "##aven": 9140,
      "Perchè": 9141,
      "pagare": 9142,
      "destra": 9143,
      "Mus": 9144,
      "Tony": 9145,
      "host": 9146,
      "inj": 9147,
      "##agne": 9148,
      "risul": 9149,
      "Asso": 9150,
      "bianco": 9151,
      "notice": 9152,
      "types": 9153,
      "According": 9154,
      "vehicle": 9155,
      "malattia": 9156,
      "400": 9157,
      "67": 9158,
      "Ini": 9159,
      "##vey": 9160,
      "dirmi": 9161,
      "istituzioni": 9162,
      "%,": 9163,
      "##eren": 9164,
      "Star": 9165,
      "terr": 9166,
      "minister": 9167,
      "histor": 9168,
      "dottor": 9169,
      "vess": 9170,
      "##dam": 9171,
      "##ancy": 9172,
      "proveni": 9173,
      "propriet": 9174,
      "##colare": 9175,
      "join": 9176,
      "Buongiorno": 9177,
      "attualmente": 9178,
      "yesterday": 9179,
      "PRES": 9180,
      "Date": 9181,
      "##action": 9182,
      "disa": 9183,
      "tornato": 9184,
      "funziona": 9185,
      "professionale": 9186,
      "civile": 9187,
      "Pass": 9188,
      "isola": 9189,
      "sinistra": 9190,
      "##olare": 9191,
      "rele": 9192,
      "consigli": 9193,
      "simili": 9194,
      "contribu": 9195,
      "drop": 9196,
      "documents": 9197,
      "honest": 9198,
      "Tw": 9199,
      "Turn": 9200,
      "ride": 9201,
      "##ids": 9202,
      "piena": 9203,
      "grant": 9204,
      "match": 9205,
      "distin": 9206,
      "milk": 9207,
      "followed": 9208,
      "Israel": 9209,
      "Open": 9210,
      "82": 9211,
      "dica": 9212,
      "percep": 9213,
      "dover": 9214,
      "impatto": 9215,
      "Conf": 9216,
      "seguire": 9217,
      "domin": 9218,
      "ritro": 9219,
      "risolvere": 9220,
      "fiducia": 9221,
      "Ele": 9222,
      "stock": 9223,
      "occur": 9224,
      "sosteni": 9225,
      "testimoni": 9226,
      "Emp": 9227,
      "middle": 9228,
      "osta": 9229,
      "##rend": 9230,
      "##pite": 9231,
      "##19": 9232,
      "scus": 9233,
      "scambio": 9234,
      "Before": 9235,
      "follows": 9236,
      "Sarah": 9237,
      "GM": 9238,
      "##bra": 9239,
      "##han": 9240,
      "Stand": 9241,
      "guardi": 9242,
      "contrario": 9243,
      "##ENTO": 9244,
      "pubblici": 9245,
      "umana": 9246,
      "lines": 9247,
      "pil": 9248,
      "##EX": 9249,
      "param": 9250,
      "moved": 9251,
      "Paris": 9252,
      "campagna": 9253,
      "sounds": 9254,
      "Fur": 9255,
      "##gano": 9256,
      "##itario": 9257,
      "contiene": 9258,
      "beach": 9259,
      "avrà": 9260,
      "prime": 9261,
      "vostre": 9262,
      "receive": 9263,
      "abitanti": 9264,
      "Big": 9265,
      "Dar": 9266,
      "disapp": 9267,
      "presentare": 9268,
      "avresti": 9269,
      "plans": 9270,
      "symp": 9271,
      "Green": 9272,
      "equal": 9273,
      "esportazione": 9274,
      "ulteriori": 9275,
      "Tesoro": 9276,
      "sad": 9277,
      "##mical": 9278,
      "##orsi": 9279,
      "presence": 9280,
      "immobili": 9281,
      "dress": 9282,
      "##back": 9283,
      "##bbene": 9284,
      "ripos": 9285,
      "Conc": 9286,
      "stile": 9287,
      "Stavo": 9288,
      "Cooper": 9289,
      "associated": 9290,
      "SP": 9291,
      "Wel": 9292,
      "occhio": 9293,
      "##AD": 9294,
      "scad": 9295,
      "motivi": 9296,
      "vacc": 9297,
      "arriva": 9298,
      "superficie": 9299,
      "##ART": 9300,
      "importazioni": 9301,
      "raggiung": 9302,
      "facili": 9303,
      "vittima": 9304,
      "Iraq": 9305,
      "Day": 9306,
      "##lation": 9307,
      "##alking": 9308,
      "##vello": 9309,
      "##uman": 9310,
      "regulation": 9311,
      "dirlo": 9312,
      "Lascia": 9313,
      "hyd": 9314,
      "rispondere": 9315,
      "dibattito": 9316,
      "scompar": 9317,
      "traffico": 9318,
      "Today": 9319,
      "##gher": 9320,
      "creato": 9321,
      "##berg": 9322,
      "approxim": 9323,
      "numbers": 9324,
      "Natale": 9325,
      "soggiorno": 9326,
      "AL": 9327,
      "IM": 9328,
      "dipl": 9329,
      "##ficata": 9330,
      "##formi": 9331,
      "operatori": 9332,
      "magari": 9333,
      "tit": 9334,
      "##ering": 9335,
      "##viamente": 9336,
      "decre": 9337,
      "dicono": 9338,
      "satisf": 9339,
      "sv": 9340,
      "meat": 9341,
      "pregn": 9342,
      "interp": 9343,
      "rispar": 9344,
      "pig": 9345,
      "till": 9346,
      "scambi": 9347,
      "pool": 9348,
      "store": 9349,
      "pensando": 9350,
      "##fficial": 9351,
      "Harry": 9352,
      "aziende": 9353,
      "flight": 9354,
      "fretta": 9355,
      "##essimo": 9356,
      "##tically": 9357,
      "recently": 9358,
      "affer": 9359,
      "smell": 9360,
      "permette": 9361,
      "emplo": 9362,
      "forgot": 9363,
      "Bon": 9364,
      "brows": 9365,
      "##ira": 9366,
      "##cra": 9367,
      "##iting": 9368,
      "...\"": 9369,
      "displ": 9370,
      "tranquill": 9371,
      "Belgi": 9372,
      "cambio": 9373,
      "pelle": 9374,
      "##vest": 9375,
      "##atell": 9376,
      "impieg": 9377,
      "spot": 9378,
      "chim": 9379,
      "expend": 9380,
      "elements": 9381,
      "bambina": 9382,
      "contribution": 9383,
      "paziente": 9384,
      "billion": 9385,
      "chiaramente": 9386,
      "Pic": 9387,
      "##car": 9388,
      "esigenze": 9389,
      "bomb": 9390,
      "avver": 9391,
      "feet": 9392,
      "richieste": 9393,
      "applications": 9394,
      "Ve": 9395,
      "rend": 9396,
      "##fying": 9397,
      "sullo": 9398,
      "Crede": 9399,
      "debole": 9400,
      "Bas": 9401,
      "tol": 9402,
      "principles": 9403,
      "rinno": 9404,
      "Holy": 9405,
      "associazione": 9406,
      "78": 9407,
      "petro": 9408,
      "##attare": 9409,
      "##orter": 9410,
      "Vuole": 9411,
      "##ech": 9412,
      "##anish": 9413,
      "##ends": 9414,
      "##cape": 9415,
      "controlli": 9416,
      "approval": 9417,
      "##seguire": 9418,
      "equili": 9419,
      "oggetti": 9420,
      "##cce": 9421,
      "purch": 9422,
      "kidding": 9423,
      "istituisce": 9424,
      "reached": 9425,
      "fossero": 9426,
      "migliaia": 9427,
      "Ecc": 9428,
      "dance": 9429,
      "holid": 9430,
      "lack": 9431,
      "users": 9432,
      "Asia": 9433,
      "famiglie": 9434,
      "detailed": 9435,
      "EUROPEAN": 9436,
      "rene": 9437,
      "##entali": 9438,
      "nem": 9439,
      "Martin": 9440,
      "aument": 9441,
      "NC": 9442,
      "tecnica": 9443,
      "legislazione": 9444,
      "tabl": 9445,
      "repres": 9446,
      "funzioni": 9447,
      "killer": 9448,
      "marketing": 9449,
      "laws": 9450,
      "mancanza": 9451,
      "Poli": 9452,
      "Porto": 9453,
      "bic": 9454,
      "##uma": 9455,
      "deten": 9456,
      "##taina": 9457,
      "farà": 9458,
      "operating": 9459,
      "treated": 9460,
      "statement": 9461,
      "osserva": 9462,
      "telefon": 9463,
      "mistake": 9464,
      "Immag": 9465,
      "Padre": 9466,
      "eight": 9467,
      "messa": 9468,
      "relig": 9469,
      "giard": 9470,
      "##cker": 9471,
      "##inding": 9472,
      "highly": 9473,
      "commerciale": 9474,
      "Washing": 9475,
      "miliardi": 9476,
      "fit": 9477,
      "##UM": 9478,
      "corres": 9479,
      "ovviamente": 9480,
      "strengthen": 9481,
      "68": 9482,
      "WH": 9483,
      "construction": 9484,
      "although": 9485,
      "compared": 9486,
      "interro": 9487,
      "##ques": 9488,
      "tutela": 9489,
      "terap": 9490,
      "committee": 9491,
      "dimensioni": 9492,
      "signorina": 9493,
      "utilizzato": 9494,
      "Cazzo": 9495,
      "##venti": 9496,
      "##IR": 9497,
      "##ottare": 9498,
      "expected": 9499,
      "Anna": 9500,
      "potrà": 9501,
      "effic": 9502,
      "##osition": 9503,
      "studenti": 9504,
      "complex": 9505,
      "impos": 9506,
      "verde": 9507,
      "chiesa": 9508,
      "poteva": 9509,
      "selezion": 9510,
      "credito": 9511,
      "decidere": 9512,
      "veterin": 9513,
      "extremely": 9514,
      "vent": 9515,
      "##vina": 9516,
      "possibility": 9517,
      "specified": 9518,
      "indeed": 9519,
      "administration": 9520,
      "wid": 9521,
      "wrote": 9522,
      "labour": 9523,
      "##ziale": 9524,
      "acque": 9525,
      "avevi": 9526,
      "adottato": 9527,
      "egli": 9528,
      "##raw": 9529,
      "pezzi": 9530,
      "personali": 9531,
      "sala": 9532,
      "Director": 9533,
      "Tutte": 9534,
      "sustaina": 9535,
      "collaborazione": 9536,
      "Swed": 9537,
      "Fr": 9538,
      "names": 9539,
      "##amor": 9540,
      "seat": 9541,
      "states": 9542,
      "somewhere": 9543,
      "##ogliere": 9544,
      "simb": 9545,
      "talked": 9546,
      "previste": 9547,
      "contains": 9548,
      "Sing": 9549,
      "sali": 9550,
      "##mission": 9551,
      "fotogra": 9552,
      "aprire": 9553,
      "debba": 9554,
      "bott": 9555,
      "matt": 9556,
      "##rono": 9557,
      "interpre": 9558,
      "Law": 9559,
      "agosto": 9560,
      "##ettono": 9561,
      "carbon": 9562,
      "mette": 9563,
      "ECB": 9564,
      "reduction": 9565,
      "tecniche": 9566,
      "regionale": 9567,
      "denun": 9568,
      "ciascuno": 9569,
      "##----": 9570,
      "incorpor": 9571,
      "fruit": 9572,
      "Bye": 9573,
      "##well": 9574,
      "developing": 9575,
      "Once": 9576,
      "Official": 9577,
      "Pur": 9578,
      "sind": 9579,
      "##xi": 9580,
      "##estern": 9581,
      "Articles": 9582,
      "dovrà": 9583,
      "Spanish": 9584,
      "Journal": 9585,
      "##itaria": 9586,
      "proi": 9587,
      "caught": 9588,
      "##bilmente": 9589,
      "Should": 9590,
      "fidanz": 9591,
      "British": 9592,
      "spiritu": 9593,
      "79": 9594,
      "rot": 9595,
      "##nazione": 9596,
      "risc": 9597,
      "village": 9598,
      "Tot": 9599,
      "segnal": 9600,
      "presented": 9601,
      "Steve": 9602,
      "negotiations": 9603,
      "cine": 9604,
      "wat": 9605,
      "aree": 9606,
      "192": 9607,
      "upd": 9608,
      "Prin": 9609,
      "fondamentali": 9610,
      "Development": 9611,
      "named": 9612,
      "interessa": 9613,
      "##ariato": 9614,
      "worried": 9615,
      "##formation": 9616,
      "piacerebbe": 9617,
      "segreto": 9618,
      "accident": 9619,
      "expenditure": 9620,
      "Cina": 9621,
      "pena": 9622,
      "detective": 9623,
      "scre": 9624,
      "##orders": 9625,
      "##celer": 9626,
      "dogan": 9627,
      "Christian": 9628,
      "Metti": 9629,
      "fro": 9630,
      "##edo": 9631,
      "famous": 9632,
      "##jection": 9633,
      "liquid": 9634,
      "University": 9635,
      "prospetti": 9636,
      "Wil": 9637,
      "lettere": 9638,
      "##iny": 9639,
      "##chiamo": 9640,
      "forze": 9641,
      "schia": 9642,
      "permetter": 9643,
      "notizie": 9644,
      "airport": 9645,
      "71": 9646,
      "AT": 9647,
      "cant": 9648,
      "hung": 9649,
      "vuo": 9650,
      "##rey": 9651,
      "spirito": 9652,
      "opening": 9653,
      "raccon": 9654,
      "processing": 9655,
      "epo": 9656,
      "mid": 9657,
      "mir": 9658,
      "##arre": 9659,
      "season": 9660,
      "attiv": 9661,
      "Whatever": 9662,
      "volon": 9663,
[...]
